#include <cstddef>
#include <cstdint>

const unsigned char g_gesture_model_data[] = {
  28,0,0,0,84,70,76,51,20,0,32,0,
  28,0,24,0,20,0,16,0,12,0,0,0,
  8,0,4,0,20,0,0,0,28,0,0,0,
  144,0,0,0,232,0,0,0,200,77,0,0,
  216,77,0,0,44,86,0,0,3,0,0,0,
  1,0,0,0,16,0,0,0,0,0,10,0,
  16,0,12,0,8,0,4,0,10,0,0,0,
  12,0,0,0,28,0,0,0,60,0,0,0,
  15,0,0,0,115,101,114,118,105,110,103,95,
  100,101,102,97,117,108,116,0,1,0,0,0,
  4,0,0,0,152,255,255,255,8,0,0,0,
  4,0,0,0,8,0,0,0,111,117,116,112,
  117,116,95,48,0,0,0,0,1,0,0,0,
  4,0,0,0,206,178,255,255,4,0,0,0,
  6,0,0,0,119,105,110,100,111,119,0,0,
  2,0,0,0,52,0,0,0,4,0,0,0,
  220,255,255,255,11,0,0,0,4,0,0,0,
  19,0,0,0,67,79,78,86,69,82,83,73,
  79,78,95,77,69,84,65,68,65,84,65,0,
  8,0,12,0,8,0,4,0,8,0,0,0,
  10,0,0,0,4,0,0,0,19,0,0,0,
  109,105,110,95,114,117,110,116,105,109,101,95,
  118,101,114,115,105,111,110,0,12,0,0,0,
  220,76,0,0,212,76,0,0,188,76,0,0,
  156,76,0,0,76,76,0,0,188,75,0,0,
  172,0,0,0,164,0,0,0,156,0,0,0,
  148,0,0,0,116,0,0,0,4,0,0,0,
  114,179,255,255,4,0,0,0,96,0,0,0,
  12,0,0,0,8,0,14,0,8,0,4,0,
  8,0,0,0,16,0,0,0,40,0,0,0,
  0,0,6,0,8,0,4,0,6,0,0,0,
  4,0,0,0,1,0,0,0,235,3,0,0,
  12,0,24,0,20,0,16,0,12,0,4,0,
  12,0,0,0,57,71,33,31,213,58,200,245,
  2,0,0,0,2,0,0,0,4,0,0,0,
  6,0,0,0,50,46,50,48,46,48,0,0,
  222,179,255,255,4,0,0,0,16,0,0,0,
  49,46,49,52,46,48,0,0,0,0,0,0,
  0,0,0,0,52,172,255,255,56,172,255,255,
  60,172,255,255,6,180,255,255,4,0,0,0,
  0,75,0,0,27,27,51,164,17,78,228,102,
  188,166,65,34,240,173,157,227,220,0,65,233,
  252,33,85,177,49,239,149,184,75,58,141,202,
  232,45,171,244,241,80,252,69,6,16,67,51,
  165,72,242,45,88,200,68,97,3,114,55,13,
  10,218,203,86,206,57,54,82,32,164,243,225,
  38,17,41,9,14,194,16,214,165,162,89,248,
  231,237,167,196,199,22,43,30,75,225,8,246,
  81,192,146,203,182,172,148,17,38,89,23,28,
  28,36,202,169,47,39,63,41,164,230,16,192,
  76,58,231,37,174,41,193,224,76,159,210,208,
  176,224,225,182,90,22,142,200,252,28,61,19,
  0,31,69,240,151,175,71,242,189,29,145,108,
  59,19,217,189,166,37,190,253,36,247,44,203,
  47,172,166,24,154,28,28,191,31,72,149,212,
  10,217,76,85,172,14,241,189,92,189,39,252,
  171,70,223,163,223,57,31,220,108,44,59,197,
  167,15,5,240,23,237,178,204,62,168,163,16,
  255,189,6,87,153,203,255,238,117,6,239,241,
  141,6,65,87,206,87,246,60,1,195,207,220,
  35,60,82,50,17,72,35,178,100,213,183,236,
  88,83,47,93,210,62,38,0,16,250,61,163,
  8,252,171,238,155,175,239,1,32,221,149,184,
  15,185,235,158,15,7,159,212,91,184,74,18,
  83,210,177,169,35,252,225,55,35,190,189,228,
  199,87,88,59,7,78,169,43,7,43,193,235,
  97,76,106,238,146,34,197,196,43,43,76,28,
  104,158,94,196,171,245,89,213,223,251,45,62,
  27,196,11,201,81,41,146,126,92,45,51,79,
  212,64,250,166,157,174,198,238,70,213,162,185,
  142,89,57,157,208,18,28,107,200,103,4,7,
  200,76,213,230,8,102,193,106,234,28,190,171,
  206,13,21,120,33,37,62,45,223,88,34,15,
  218,240,197,160,210,222,14,214,108,187,161,165,
  213,195,44,73,19,208,79,255,29,12,20,237,
  36,243,57,38,40,209,58,196,184,198,42,77,
  39,250,46,10,217,179,89,212,80,207,149,63,
  169,88,249,30,188,194,73,100,219,44,23,108,
  20,184,174,155,68,67,3,212,225,161,186,42,
  203,28,165,143,221,95,22,185,214,219,183,26,
  88,5,48,214,152,58,250,199,16,154,239,6,
  154,236,242,67,161,63,8,204,181,35,154,230,
  50,81,143,5,187,6,179,231,38,63,40,68,
  171,156,57,83,232,12,225,4,48,96,87,23,
  222,252,11,8,20,247,166,14,207,102,210,52,
  199,97,165,84,152,224,25,105,70,14,76,36,
  88,86,186,111,73,214,33,100,172,194,255,9,
  207,154,83,192,80,153,60,139,26,33,182,214,
  252,22,43,191,198,163,46,111,89,108,221,233,
  218,179,166,51,142,226,196,104,129,104,226,221,
  144,221,135,104,149,232,88,250,247,197,2,253,
  196,168,10,1,38,211,35,51,29,211,232,58,
  60,163,42,12,163,243,225,209,50,0,72,173,
  235,194,4,77,205,64,17,77,177,178,88,59,
  86,76,92,74,180,146,207,155,196,247,13,210,
  248,200,190,69,229,71,168,235,240,85,165,26,
  31,239,62,241,70,32,173,63,237,57,203,152,
  173,56,196,77,166,9,241,17,75,204,7,239,
  43,13,30,203,247,40,185,186,222,194,32,67,
  206,37,10,177,50,43,37,218,225,149,32,87,
  197,165,202,37,182,244,228,188,24,154,227,224,
  41,194,227,153,172,203,207,37,75,164,245,227,
  88,233,45,232,238,219,60,84,250,30,239,62,
  167,189,234,172,255,34,223,55,88,140,95,185,
  1,88,64,28,27,52,86,24,8,7,236,205,
  213,232,155,10,6,84,206,60,48,245,241,208,
  6,59,91,10,30,97,45,199,74,180,211,184,
  213,53,55,157,161,228,12,80,155,36,18,251,
  236,239,174,243,219,244,166,207,49,68,237,237,
  59,237,194,53,53,170,158,204,174,245,28,22,
  17,186,69,80,225,206,239,90,243,232,62,227,
  239,210,14,10,182,112,195,36,165,35,8,61,
  56,100,84,254,248,230,38,105,228,80,209,230,
  84,181,197,33,217,208,42,19,206,67,240,39,
  41,24,201,2,3,199,12,59,101,238,240,10,
  247,60,79,167,38,239,7,127,63,11,49,17,
  226,94,216,104,48,80,211,122,79,6,212,202,
  219,17,5,237,230,8,239,253,43,236,243,76,
  234,23,186,93,235,4,194,190,84,77,67,9,
  64,192,242,247,53,174,228,255,71,8,219,0,
  75,33,45,192,49,80,249,59,233,17,240,200,
  216,60,178,50,72,18,18,25,202,1,45,82,
  204,248,46,241,39,195,251,149,98,190,188,176,
  108,70,75,76,176,212,100,170,9,22,40,59,
  197,236,108,240,177,252,232,2,82,58,67,249,
  202,188,180,2,182,224,67,57,12,178,189,101,
  249,145,100,84,150,212,195,225,35,190,18,218,
  69,58,241,217,243,203,184,80,98,80,69,213,
  219,71,203,127,45,133,66,215,178,124,0,31,
  180,218,87,58,227,163,244,249,98,63,82,27,
  45,194,205,14,46,245,23,182,106,8,24,64,
  11,37,97,167,155,61,109,159,62,176,15,59,
  107,37,10,16,82,140,199,9,15,57,14,44,
  193,184,216,175,220,209,70,86,180,69,205,219,
  19,234,38,47,167,22,9,42,30,64,28,2,
  222,25,232,240,30,17,93,95,178,138,22,227,
  246,253,89,72,185,106,210,250,67,71,21,218,
  5,182,75,145,253,43,217,118,5,161,231,80,
  105,72,43,49,97,3,192,54,87,248,243,233,
  90,205,107,225,200,7,74,141,115,225,247,248,
  13,80,188,13,222,31,19,233,71,92,176,184,
  220,16,49,107,147,202,55,218,12,82,165,247,
  67,65,17,58,249,98,40,161,179,241,4,199,
  3,45,182,245,39,69,253,85,170,11,164,17,
  230,15,44,254,196,240,40,233,167,32,54,244,
  152,40,59,157,166,56,156,165,109,87,174,0,
  229,39,67,47,149,78,221,199,53,23,209,248,
  72,181,176,77,79,29,236,187,187,22,214,162,
  98,99,192,224,92,234,85,248,59,12,240,230,
  218,247,242,206,17,198,182,181,221,114,33,164,
  20,212,207,253,166,160,179,208,103,216,232,25,
  61,37,156,244,170,43,40,7,20,233,214,172,
  5,166,89,105,7,158,245,73,38,190,13,209,
  90,158,100,218,248,214,1,59,242,7,167,8,
  249,244,65,58,226,40,255,68,177,207,30,155,
  64,26,40,18,247,147,34,227,242,149,249,229,
  248,238,65,30,181,198,217,190,157,8,0,60,
  204,26,197,234,207,29,72,26,81,64,249,250,
  245,82,197,72,64,68,21,53,83,35,149,248,
  191,79,240,32,45,207,14,111,2,71,81,85,
  106,197,199,139,84,221,247,164,12,148,247,232,
  33,44,148,210,255,1,21,6,160,58,30,107,
  74,20,65,19,49,201,203,34,212,5,52,161,
  30,164,69,204,185,189,81,21,251,255,61,66,
  4,31,26,16,54,205,233,1,29,212,173,65,
  183,198,200,7,252,29,161,176,209,28,87,217,
  197,210,243,92,39,227,206,82,60,52,177,175,
  56,31,201,100,236,242,81,152,12,229,178,170,
  87,248,254,52,33,49,52,181,38,35,71,99,
  252,66,207,44,241,38,61,228,210,40,184,241,
  82,60,83,19,0,112,205,249,229,247,45,199,
  203,220,54,215,51,105,26,186,176,53,50,39,
  198,214,39,174,34,91,228,207,30,63,5,27,
  25,248,71,77,206,183,57,23,197,230,81,166,
  144,193,38,250,197,217,78,182,161,249,231,230,
  89,105,254,221,89,208,148,181,31,28,216,10,
  189,86,45,77,227,168,216,243,195,169,63,12,
  25,36,81,167,199,190,234,229,66,6,86,250,
  44,93,197,162,233,246,57,17,72,207,58,57,
  90,239,235,110,77,233,5,35,101,246,231,27,
  251,11,170,216,141,53,68,208,202,106,84,230,
  231,240,88,247,41,205,89,8,67,127,42,199,
  74,36,77,87,167,105,100,187,2,203,155,74,
  68,155,108,175,4,4,187,201,174,187,37,163,
  170,170,93,201,3,249,1,10,15,30,154,62,
  247,230,65,44,175,174,93,212,189,227,164,85,
  72,209,24,248,64,217,62,66,246,240,242,0,
  229,55,158,0,172,236,184,217,76,201,145,50,
  67,228,8,93,173,12,73,175,10,245,38,200,
  216,180,79,109,242,81,16,44,254,198,157,246,
  220,53,24,4,60,7,186,120,45,186,166,160,
  102,244,153,48,9,222,69,187,34,5,109,47,
  20,164,63,101,29,211,193,206,82,163,218,78,
  245,180,45,160,216,1,85,173,254,250,162,3,
  116,174,93,42,162,34,76,241,147,68,161,183,
  8,14,230,14,39,206,235,235,35,5,82,83,
  223,250,153,205,90,46,234,198,59,221,183,175,
  74,250,252,26,11,160,95,57,77,253,47,156,
  206,36,169,179,57,250,239,201,139,169,184,61,
  229,173,216,35,148,40,243,202,248,39,73,70,
  255,73,36,152,184,10,30,21,82,147,218,211,
  0,213,206,159,1,56,3,215,169,226,209,224,
  1,194,61,135,97,35,171,27,61,27,37,80,
  202,52,10,141,212,28,38,70,99,237,158,145,
  255,20,0,80,252,62,180,12,10,237,216,90,
  210,226,76,133,244,46,186,14,61,206,212,97,
  172,23,20,5,206,235,39,117,160,11,35,46,
  4,105,54,245,191,244,197,109,248,200,104,113,
  170,222,35,90,162,216,14,214,254,170,88,185,
  32,207,0,173,71,44,229,52,210,250,90,108,
  196,27,212,79,84,94,65,137,69,56,255,202,
  55,24,15,63,252,202,180,219,177,143,105,38,
  77,157,15,70,232,68,77,172,86,9,250,242,
  221,60,45,247,15,201,6,194,15,109,213,213,
  99,237,181,222,206,246,248,41,65,59,187,220,
  218,134,85,39,161,166,110,219,197,66,46,169,
  194,206,82,160,22,51,194,214,245,240,47,83,
  179,18,29,95,88,173,102,1,91,106,253,5,
  181,195,48,12,248,51,167,44,72,10,44,54,
  35,242,0,53,7,254,119,78,157,188,246,165,
  18,98,166,244,145,65,66,232,7,249,236,62,
  19,88,176,110,179,150,208,8,28,224,80,146,
  51,195,7,41,153,50,9,88,214,64,30,161,
  37,69,13,216,236,104,15,93,76,74,40,243,
  222,23,80,41,23,11,41,57,73,89,31,254,
  35,129,209,47,184,74,182,23,72,226,28,77,
  100,200,213,206,102,192,110,149,220,176,197,63,
  92,206,51,100,97,227,69,175,110,29,186,30,
  249,194,89,97,151,197,26,182,114,248,205,203,
  105,240,61,190,194,71,36,234,110,205,185,39,
  3,102,215,53,96,63,95,171,19,62,91,143,
  194,239,215,225,48,79,96,206,176,249,1,165,
  102,188,94,0,51,148,24,228,97,68,196,69,
  184,245,98,169,241,132,13,225,166,237,163,90,
  231,159,254,166,241,155,78,38,12,172,29,236,
  58,139,93,50,195,183,191,247,159,81,46,79,
  26,243,183,59,192,223,86,79,39,66,209,253,
  196,253,218,5,60,19,196,171,194,70,29,45,
  18,173,247,55,228,234,192,221,252,218,33,249,
  178,222,189,166,2,25,40,48,71,206,241,216,
  197,74,44,88,44,4,160,67,17,244,228,170,
  26,133,6,139,213,47,167,175,74,85,0,116,
  93,55,222,157,61,204,142,150,251,22,155,202,
  210,8,86,159,151,84,230,92,19,21,209,25,
  227,27,172,16,4,54,220,60,163,90,148,254,
  71,35,227,51,151,228,194,145,63,104,2,165,
  17,192,14,199,185,221,139,250,170,54,210,158,
  186,209,92,27,1,201,230,27,214,103,241,207,
  90,248,251,159,4,146,38,23,190,143,217,168,
  252,14,191,196,205,179,161,178,28,22,221,81,
  204,63,211,146,205,78,56,226,227,40,184,87,
  19,22,60,75,65,38,85,144,38,41,228,188,
  34,4,194,172,215,175,199,192,246,243,185,202,
  72,221,42,236,192,90,4,168,192,38,229,55,
  88,117,61,46,216,102,86,186,195,3,56,2,
  34,178,252,2,223,214,64,214,157,58,196,104,
  136,235,250,29,93,169,163,98,9,13,76,193,
  169,218,184,12,96,75,211,30,111,54,98,249,
  81,214,14,181,45,2,203,32,223,226,245,221,
  88,226,245,83,242,224,63,255,178,30,149,102,
  32,94,62,66,100,11,177,48,172,82,48,11,
  138,77,35,231,40,33,193,184,36,59,165,32,
  162,184,40,83,51,150,33,209,120,51,168,87,
  13,148,61,176,98,52,59,251,87,77,231,56,
  235,68,52,20,82,77,253,114,0,198,66,41,
  166,81,195,33,93,248,58,238,111,221,107,115,
  52,66,126,179,209,187,223,166,36,112,189,105,
  37,3,186,175,158,191,168,13,45,250,76,148,
  164,44,13,9,231,83,33,66,53,43,19,36,
  72,172,61,253,32,158,67,171,175,0,73,16,
  223,16,244,182,158,232,92,17,116,19,10,249,
  195,250,244,188,206,185,223,77,246,52,15,184,
  116,32,187,78,38,61,212,151,247,53,39,64,
  67,210,187,165,48,47,191,6,64,253,102,89,
  29,48,209,110,199,139,181,98,249,34,83,31,
  178,170,252,100,196,11,178,9,208,216,5,54,
  214,190,6,52,181,96,63,41,22,150,166,71,
  208,66,199,31,102,163,17,180,237,194,157,53,
  209,238,51,255,20,110,246,44,3,189,225,85,
  36,206,5,196,166,14,97,13,234,228,102,137,
  190,61,198,20,84,5,213,195,44,45,247,67,
  163,77,36,87,66,80,192,59,238,139,229,64,
  197,62,22,83,158,219,213,104,25,252,98,29,
  144,238,183,208,220,94,225,150,192,224,219,21,
  42,233,179,219,190,250,80,113,133,81,154,175,
  192,119,180,23,197,201,178,122,234,87,83,174,
  73,236,247,7,49,9,239,36,7,255,74,101,
  237,39,55,236,70,109,254,78,31,253,210,172,
  168,193,230,160,160,0,5,34,215,65,19,55,
  175,89,47,82,254,231,158,98,193,53,218,155,
  4,46,129,48,33,245,10,177,199,75,185,4,
  136,104,4,232,245,223,253,253,3,50,114,2,
  3,16,4,1,248,178,130,82,254,168,186,146,
  211,96,242,221,233,166,4,219,0,103,45,179,
  114,202,0,252,141,190,216,254,240,29,147,5,
  121,0,231,254,69,229,0,0,0,255,3,66,
  10,2,253,13,3,1,183,232,228,1,1,31,
  1,0,150,221,6,85,2,172,0,144,152,65,
  2,94,176,0,255,243,253,200,4,62,61,255,
  29,255,255,148,188,191,86,0,235,252,205,32,
  33,96,144,255,3,3,3,252,242,255,1,254,
  2,220,234,102,254,31,255,34,1,2,20,223,
  248,202,109,82,7,244,36,210,168,188,255,240,
  14,140,175,254,247,145,40,225,30,253,185,198,
  137,1,234,236,253,50,131,5,105,34,252,2,
  1,142,253,233,0,12,121,222,145,198,4,0,
  148,38,0,0,61,146,226,0,246,252,65,3,
  163,54,222,255,255,0,68,210,17,78,107,76,
  192,252,2,253,48,13,4,0,2,236,201,1,
  150,97,247,133,1,0,114,104,255,91,1,255,
  37,3,0,140,217,254,89,253,231,255,252,22,
  4,141,233,21,1,13,254,250,225,255,0,4,
  203,125,236,25,2,148,251,54,144,208,255,231,
  210,91,21,189,180,130,55,166,195,40,0,171,
  26,248,23,194,200,165,249,255,3,23,197,253,
  124,75,57,46,253,2,131,186,255,1,34,255,
  36,1,87,174,143,186,254,70,20,0,0,255,
  1,233,12,94,35,186,60,0,219,219,1,196,
  0,0,240,86,0,254,9,82,8,184,3,255,
  47,84,206,126,4,145,254,0,172,253,1,255,
  130,241,237,253,1,16,220,228,253,6,4,2,
  1,185,223,0,133,4,109,156,4,24,32,255,
  255,197,0,77,197,170,114,226,1,0,3,189,
  131,208,55,95,0,129,254,3,4,253,255,0,
  144,3,70,145,1,186,159,0,0,0,234,253,
  122,42,33,1,1,0,215,255,253,27,10,254,
  126,169,1,136,208,254,224,60,156,127,1,215,
  1,1,92,105,8,0,58,222,254,15,5,64,
  0,110,178,3,1,36,161,213,29,5,248,31,
  246,252,73,189,74,182,157,0,179,0,159,206,
  196,94,54,255,0,233,139,165,1,14,255,195,
  122,144,71,0,175,116,22,12,14,30,0,0,
  104,177,253,13,143,255,0,0,0,254,224,0,
  60,35,241,0,33,0,250,216,252,21,230,119,
  122,255,115,252,23,2,220,189,0,127,160,28,
  18,100,252,191,0,110,2,1,218,249,136,37,
  254,1,0,0,206,255,244,1,163,2,1,0,
  6,247,17,254,190,252,0,4,4,240,253,239,
  254,24,228,113,199,93,39,1,184,196,1,193,
  135,0,3,94,36,255,255,87,255,99,223,35,
  0,0,62,102,70,166,228,213,83,196,35,43,
  16,195,68,190,186,66,145,79,164,247,255,210,
  13,180,2,51,74,98,38,251,7,236,59,183,
  220,235,205,195,29,46,143,18,34,101,66,27,
  19,189,180,168,163,127,156,219,96,28,229,227,
  13,81,54,234,37,217,199,15,7,180,40,56,
  244,87,17,193,180,30,160,1,41,217,162,250,
  34,191,69,111,47,222,156,218,63,179,205,85,
  214,220,35,22,8,201,72,74,252,232,231,211,
  82,188,248,203,193,233,253,1,84,209,166,187,
  55,92,220,0,229,53,78,10,103,253,202,183,
  175,255,32,220,160,19,250,239,250,104,68,75,
  26,157,46,112,193,178,83,221,233,209,16,27,
  93,7,58,45,180,203,151,168,96,188,206,204,
  50,77,214,29,92,248,66,53,88,193,65,140,
  35,70,98,213,229,163,3,231,8,70,219,180,
  174,231,190,93,98,239,91,2,176,251,182,196,
  74,47,68,62,235,149,210,87,230,228,163,169,
  104,199,19,51,220,70,233,70,114,82,212,153,
  243,106,244,181,218,247,1,67,74,40,231,243,
  110,15,53,37,9,153,200,102,246,15,226,194,
  171,251,86,80,215,215,48,244,240,42,235,84,
  35,51,169,213,71,165,233,63,95,92,214,233,
  65,4,52,72,102,55,31,243,189,208,249,7,
  220,156,11,187,105,44,248,235,31,219,89,213,
  184,71,239,3,91,13,181,25,19,252,51,207,
  67,190,140,64,228,181,58,131,34,212,9,185,
  70,195,208,5,67,71,28,24,174,36,6,73,
  68,184,205,1,12,157,202,245,47,77,193,45,
  202,195,173,86,96,75,83,225,253,145,63,64,
  221,86,63,241,68,168,73,215,24,171,218,74,
  76,227,55,167,254,87,24,79,197,190,18,186,
  135,56,254,178,165,111,254,76,37,181,41,32,
  255,251,193,156,186,228,70,194,84,83,42,103,
  9,18,91,27,5,85,29,164,221,203,233,214,
  156,183,164,160,180,13,214,152,50,219,25,202,
  190,231,42,72,64,65,154,159,166,201,23,27,
  205,72,227,157,90,101,148,59,188,240,255,225,
  17,77,53,199,162,192,86,239,224,86,238,76,
  20,20,211,213,155,230,80,205,200,200,56,97,
  43,177,184,205,99,196,31,66,72,213,250,29,
  250,199,73,64,55,72,219,80,50,17,60,84,
  91,6,46,96,94,95,178,80,3,78,31,17,
  73,243,241,210,199,236,150,60,77,83,190,106,
  239,29,181,11,90,9,151,200,2,42,53,194,
  183,15,147,121,161,197,84,6,228,110,9,174,
  220,187,76,124,232,21,85,56,219,56,9,70,
  11,242,77,235,19,181,204,57,181,229,249,41,
  168,70,23,181,45,255,80,237,13,185,25,204,
  188,43,233,187,65,219,61,191,8,98,255,75,
  75,181,239,119,41,187,90,215,247,242,154,246,
  176,39,230,167,222,0,235,253,12,250,212,230,
  114,243,181,199,143,130,201,84,80,50,203,138,
  231,168,254,211,71,233,224,211,34,222,68,51,
  98,180,165,60,90,191,210,180,146,170,163,216,
  237,84,170,164,25,218,17,76,194,103,10,161,
  68,17,205,18,79,255,235,93,12,47,146,99,
  113,21,15,208,192,183,16,202,167,211,51,170,
  86,91,197,228,194,53,177,23,51,40,17,107,
  227,216,58,164,226,102,7,224,44,239,64,175,
  50,191,12,202,59,185,220,6,140,238,159,78,
  21,182,79,204,181,42,179,67,169,183,195,27,
  188,147,88,6,170,159,48,242,197,93,168,203,
  203,1,23,229,174,90,14,148,158,41,172,186,
  67,14,49,99,81,183,30,193,232,59,169,87,
  252,224,167,54,10,30,36,136,239,96,138,17,
  246,242,93,160,63,184,192,14,147,190,96,220,
  153,90,134,247,182,250,97,236,245,52,166,78,
  66,239,245,216,223,247,176,38,20,21,5,232,
  80,75,43,55,20,55,162,37,95,220,62,54,
  245,220,214,56,5,105,193,156,197,159,60,66,
  173,249,66,237,13,35,40,89,156,39,72,36,
  38,47,5,72,197,94,161,68,165,87,175,101,
  10,174,249,38,178,197,181,40,173,93,159,152,
  240,4,184,159,20,166,20,95,225,104,40,40,
  4,147,69,30,40,28,8,232,20,171,86,216,
  43,12,52,170,15,189,203,245,13,189,236,80,
  203,186,28,33,237,108,183,106,77,40,209,112,
  247,229,90,225,210,107,214,111,173,96,43,49,
  210,116,193,99,61,150,12,86,176,84,67,45,
  168,191,94,246,237,188,204,204,62,184,175,62,
  31,204,234,163,90,36,118,101,178,156,95,206,
  91,81,70,193,186,199,111,182,24,156,197,170,
  28,75,53,252,2,37,210,49,170,226,197,83,
  249,59,166,89,96,37,195,70,66,169,51,176,
  80,164,217,28,48,8,9,105,202,235,225,237,
  51,15,43,65,28,203,31,63,127,75,226,70,
  170,236,169,59,143,196,218,189,42,239,94,48,
  46,53,229,59,186,98,117,153,243,112,234,83,
  217,94,21,34,36,147,172,218,183,66,84,229,
  250,244,43,59,228,211,68,77,254,38,186,217,
  204,71,237,52,204,101,18,174,178,243,253,32,
  168,75,172,244,250,162,235,85,191,50,90,65,
  61,244,208,55,215,221,198,92,177,40,201,189,
  102,44,187,140,228,146,230,61,235,94,238,242,
  190,210,169,189,221,251,201,153,23,73,183,62,
  99,189,46,160,219,40,172,93,58,85,225,51,
  99,149,119,227,51,250,177,186,75,93,203,1,
  97,241,91,67,101,222,82,179,52,30,251,245,
  35,163,203,57,5,222,43,221,6,165,33,105,
  212,222,171,164,16,159,160,136,25,223,89,28,
  146,136,182,198,29,30,67,199,88,65,1,118,
  188,29,166,27,40,253,208,16,214,245,2,94,
  73,216,239,236,230,237,163,49,180,202,43,184,
  45,221,108,6,156,27,210,207,39,61,185,0,
  32,48,78,21,53,11,192,188,100,78,192,184,
  71,77,91,206,249,212,240,151,32,38,195,220,
  203,161,8,7,67,77,87,30,7,80,30,52,
  60,232,106,22,67,166,168,204,79,238,97,77,
  255,208,87,101,76,156,209,183,247,76,189,149,
  73,46,212,0,67,45,83,147,170,67,238,224,
  190,182,103,101,14,199,143,8,57,27,198,217,
  49,156,210,71,28,90,169,203,186,178,45,254,
  147,15,190,210,169,246,240,219,225,163,180,246,
  238,237,100,20,59,240,95,50,172,74,99,165,
  21,28,53,114,204,223,89,248,102,79,213,73,
  174,104,29,73,67,95,234,43,52,78,110,91,
  206,34,205,233,67,92,32,105,221,183,245,51,
  104,96,4,191,251,191,109,38,152,248,209,208,
  48,81,182,29,174,253,210,91,215,102,65,83,
  62,38,191,39,18,229,245,165,24,38,234,65,
  233,159,225,167,2,159,241,210,52,26,209,22,
  205,89,195,6,4,223,22,211,163,109,211,234,
  169,196,157,153,110,221,240,40,239,84,156,47,
  83,69,218,231,98,226,205,35,75,215,37,231,
  52,93,203,20,156,191,30,241,83,156,166,1,
  255,209,235,217,190,57,174,198,216,92,81,55,
  207,44,38,248,44,252,181,5,39,12,208,37,
  15,254,50,254,90,182,214,198,4,48,70,53,
  12,221,36,38,18,193,229,85,58,208,11,99,
  147,57,40,49,211,24,215,14,39,55,96,46,
  227,241,58,54,255,238,47,176,225,204,70,44,
  174,177,207,239,190,161,6,213,140,47,84,241,
  48,188,235,96,157,190,33,232,229,172,158,239,
  143,82,201,227,29,254,197,22,70,39,168,197,
  54,88,47,180,44,76,16,125,145,216,163,205,
  84,229,71,169,175,74,185,0,31,219,26,159,
  89,218,168,251,190,24,53,114,68,245,26,15,
  221,199,153,27,224,232,137,214,156,146,216,205,
  39,45,32,239,208,20,168,180,160,42,2,242,
  41,194,224,51,189,206,224,101,83,168,181,197,
  19,147,189,26,56,240,83,185,242,168,91,243,
  168,210,207,35,212,122,18,56,192,208,147,201,
  58,76,25,226,50,245,76,197,226,230,204,179,
  63,19,235,103,213,54,77,66,59,186,12,205,
  222,13,143,86,230,51,33,54,253,203,223,1,
  158,151,173,112,6,85,19,47,253,106,244,97,
  219,169,137,83,215,146,203,231,251,34,75,216,
  64,8,242,43,194,215,212,31,157,127,216,29,
  250,101,39,194,73,206,0,8,202,204,254,10,
  61,3,217,235,112,222,48,255,30,249,107,65,
  110,251,151,108,16,66,224,14,95,52,27,15,
  235,226,57,171,64,171,24,105,77,162,53,51,
  184,91,19,154,232,207,207,166,41,224,25,187,
  71,76,241,224,174,235,25,252,13,150,220,63,
  214,246,221,154,217,65,13,68,229,174,186,176,
  225,58,225,151,10,80,177,175,173,243,159,233,
  84,168,26,247,76,168,213,241,176,181,49,211,
  243,25,201,177,23,192,21,149,82,181,5,3,
  22,79,224,104,205,202,183,166,153,165,81,252,
  6,246,2,161,14,30,246,29,201,111,85,169,
  21,161,59,196,209,226,18,76,18,44,26,217,
  64,226,152,211,249,194,234,100,155,189,101,93,
  181,208,20,251,225,182,191,33,75,76,253,39,
  178,88,8,148,155,156,0,87,151,228,98,179,
  174,205,65,87,179,86,219,161,51,67,64,189,
  216,89,242,242,205,245,196,160,195,39,166,250,
  186,246,10,116,162,58,168,224,187,210,6,65,
  78,39,3,202,252,73,66,239,74,80,211,207,
  194,188,165,20,19,6,85,217,154,99,163,142,
  40,241,49,217,226,58,235,171,45,75,95,45,
  34,175,64,240,37,145,223,39,61,240,5,170,
  245,66,150,88,183,252,80,99,129,69,46,12,
  208,205,9,182,217,241,162,186,140,63,60,153,
  89,61,13,201,16,246,27,78,65,188,104,239,
  101,172,141,56,0,141,214,6,226,101,9,74,
  51,166,36,192,4,169,147,45,68,184,9,250,
  251,210,211,207,106,208,215,19,64,20,16,7,
  7,100,45,166,70,232,254,248,146,200,12,161,
  226,57,164,161,96,234,32,204,213,22,207,186,
  185,182,47,228,200,146,207,192,211,164,204,159,
  81,34,66,134,176,162,232,97,68,244,189,99,
  237,170,28,23,66,28,66,191,193,220,195,95,
  73,167,70,63,168,168,2,199,157,72,48,183,
  47,55,192,8,15,107,143,17,206,68,223,74,
  239,76,2,5,160,219,66,70,167,8,177,241,
  21,249,31,0,11,175,15,216,97,96,170,231,
  86,23,212,237,203,82,205,63,197,19,19,249,
  167,167,21,191,162,85,204,77,207,231,86,60,
  183,195,243,34,213,76,246,95,108,56,195,31,
  26,227,91,5,53,43,171,143,217,236,245,155,
  206,87,42,14,169,87,214,79,59,93,7,90,
  160,45,66,216,165,77,161,54,14,90,100,19,
  246,76,86,181,0,180,250,181,185,172,28,95,
  195,166,92,56,81,186,227,151,29,147,8,18,
  99,145,230,49,0,214,234,83,240,57,214,165,
  77,63,224,182,156,38,208,29,227,19,64,211,
  243,85,100,18,11,174,9,165,34,242,239,101,
  1,238,59,50,212,162,51,60,190,244,91,163,
  93,23,197,58,38,110,71,52,206,155,101,208,
  251,91,238,73,204,229,151,213,3,34,3,197,
  3,195,10,204,73,200,191,5,34,181,23,112,
  216,173,56,172,79,92,81,8,255,33,64,214,
  159,225,42,43,44,64,25,160,86,168,187,82,
  63,21,64,16,81,15,59,10,231,95,224,226,
  227,217,218,72,219,1,173,243,100,6,78,75,
  85,243,58,199,213,85,187,1,72,39,7,36,
  153,230,17,254,15,155,182,81,37,235,207,161,
  216,144,16,229,95,175,239,223,6,6,238,174,
  170,104,244,178,213,149,150,190,229,54,30,227,
  84,152,74,89,52,19,201,193,72,88,56,49,
  37,151,12,25,220,203,170,80,61,188,95,16,
  188,22,254,94,196,238,237,65,92,68,232,200,
  213,58,50,62,221,244,40,200,215,235,177,255,
  240,82,64,114,40,240,228,205,225,39,213,4,
  244,178,210,43,66,70,202,208,169,99,213,228,
  39,38,207,44,172,72,253,195,204,156,18,233,
  97,30,242,86,248,29,55,229,67,9,39,161,
  229,203,22,165,216,71,38,198,87,12,64,86,
  230,6,233,197,228,2,36,242,207,8,181,205,
  219,207,191,255,165,245,73,87,156,209,30,248,
  48,94,17,240,229,10,254,52,59,207,219,9,
  240,92,203,201,57,7,99,217,147,213,101,195,
  19,61,29,232,207,63,207,3,248,203,79,249,
  217,233,3,169,24,231,189,253,95,100,173,27,
  81,188,78,189,217,242,208,26,92,93,231,232,
  158,161,211,233,188,15,190,129,3,164,168,241,
  186,76,31,213,166,30,201,55,62,175,34,65,
  60,6,63,12,199,214,50,80,192,52,218,209,
  35,213,248,21,77,2,142,173,210,36,166,159,
  212,221,168,42,183,155,51,60,217,6,35,10,
  46,191,18,72,172,65,237,210,243,65,195,230,
  221,37,50,87,76,206,163,214,165,202,231,164,
  5,187,209,243,236,210,153,167,233,242,67,47,
  251,94,236,232,19,77,41,226,167,188,8,173,
  245,11,150,44,191,42,75,255,184,8,177,31,
  153,45,191,179,9,96,80,227,186,171,92,224,
  9,251,216,81,192,108,193,59,145,28,217,252,
  158,232,77,238,84,42,237,235,33,212,29,245,
  246,71,241,2,234,191,52,226,70,212,64,108,
  30,16,51,197,93,17,202,217,159,172,216,81,
  12,61,14,170,31,67,155,246,236,83,189,94,
  212,76,66,51,53,41,242,62,81,77,80,51,
  63,165,140,107,28,196,14,226,18,60,32,197,
  46,163,2,253,42,233,212,80,201,212,10,94,
  153,216,25,106,213,74,16,112,141,2,181,12,
  20,37,247,225,173,14,209,41,157,212,54,228,
  207,36,151,213,223,69,11,48,56,35,71,249,
  36,163,168,203,88,17,8,179,48,10,213,183,
  200,67,250,38,58,178,221,86,234,187,81,22,
  195,237,139,123,42,162,14,42,228,233,181,25,
  180,118,207,32,30,179,18,22,83,43,249,208,
  203,254,3,55,193,170,107,102,25,75,24,219,
  34,99,40,117,208,69,84,187,187,42,17,247,
  249,58,9,205,252,62,158,205,32,213,72,21,
  74,219,81,186,242,218,100,52,63,171,166,150,
  178,16,92,65,172,22,79,75,147,68,185,11,
  166,226,45,148,38,242,113,119,156,88,244,67,
  188,38,199,90,10,21,186,67,169,156,145,230,
  214,199,189,180,84,232,195,102,25,79,240,228,
  163,220,13,89,81,40,36,10,93,93,155,102,
  81,12,201,199,53,174,207,116,170,205,38,5,
  78,125,227,164,85,63,232,64,240,161,57,122,
  230,209,156,38,49,72,50,55,210,75,226,174,
  232,192,165,151,9,66,43,120,61,30,75,7,
  48,41,21,57,207,108,228,145,2,162,33,17,
  38,1,181,39,199,111,73,34,92,151,248,67,
  158,254,0,178,29,198,0,203,160,74,45,10,
  6,19,27,235,197,27,5,239,31,103,223,183,
  214,243,122,193,44,228,245,253,22,43,157,85,
  47,77,198,235,151,14,201,144,255,30,187,127,
  217,36,245,194,60,61,221,38,246,209,236,42,
  238,6,163,159,196,192,41,152,46,85,74,233,
  66,172,68,107,202,7,69,251,165,163,93,123,
  143,225,215,1,99,179,183,177,189,254,165,165,
  37,189,232,33,250,32,70,76,30,47,170,74,
  66,195,25,18,169,75,59,204,164,122,21,16,
  19,89,29,30,243,195,74,254,236,243,238,75,
  158,249,36,185,78,154,191,52,100,50,72,144,
  205,13,248,172,5,134,225,74,250,81,174,43,
  73,21,245,235,170,238,82,197,38,27,38,81,
  61,24,46,112,227,177,215,85,185,89,178,8,
  110,199,99,41,87,239,242,220,58,10,66,90,
  116,20,9,222,254,60,55,14,217,222,77,21,
  198,4,163,11,32,77,39,61,90,185,7,56,
  70,21,188,86,254,19,211,181,218,167,27,38,
  116,205,88,8,186,235,247,18,236,55,10,147,
  184,153,156,196,243,78,243,91,45,162,28,188,
  2,162,169,216,2,34,119,51,247,86,98,31,
  19,105,104,165,49,55,115,174,90,24,75,231,
  65,237,89,78,204,206,200,199,62,241,202,76,
  158,5,168,138,174,220,23,106,77,204,223,217,
  221,171,246,76,107,35,50,46,252,35,170,211,
  60,198,218,183,202,176,48,89,100,135,196,159,
  241,106,236,237,195,230,25,41,214,209,74,218,
  118,42,171,37,90,36,18,86,78,148,212,153,
  64,184,104,132,77,81,186,33,157,195,111,82,
  83,36,74,141,238,173,102,106,65,30,86,238,
  214,211,47,240,34,24,57,163,3,81,106,174,
  99,49,61,230,86,234,239,60,159,24,147,242,
  0,82,38,158,57,60,48,11,86,223,197,236,
  75,209,198,248,222,94,227,8,48,93,201,22,
  15,90,81,49,6,238,37,28,64,95,40,46,
  58,39,72,34,1,254,60,4,181,25,164,72,
  211,182,242,53,93,33,175,71,101,17,81,37,
  182,14,70,195,252,206,42,170,22,26,76,7,
  232,249,53,112,49,199,249,252,88,36,86,237,
  53,155,35,243,241,61,230,39,65,10,42,30,
  185,23,187,94,197,171,89,233,236,64,43,144,
  165,73,47,230,83,206,37,77,242,197,174,213,
  45,61,201,27,40,234,30,84,174,243,244,154,
  61,163,231,184,45,19,189,154,103,35,37,178,
  71,111,74,163,4,65,64,17,32,192,84,211,
  7,211,22,53,31,38,237,64,105,91,60,157,
  109,85,177,59,225,22,34,178,37,77,214,82,
  203,7,100,182,22,30,198,43,172,21,69,148,
  250,92,215,41,47,68,56,191,222,159,220,204,
  98,7,190,250,95,4,71,61,168,212,61,219,
  236,34,154,180,237,248,22,235,60,56,210,1,
  183,69,85,91,229,255,244,94,170,214,238,53,
  165,46,222,199,32,46,40,97,244,182,239,37,
  18,229,245,202,2,244,235,221,28,7,190,186,
  217,206,228,211,94,13,215,188,63,66,251,29,
  64,248,18,246,104,92,105,207,203,19,27,8,
  93,158,157,175,177,17,236,187,169,151,169,102,
  83,171,200,166,234,241,191,72,165,31,63,12,
  91,162,41,247,43,165,91,69,135,42,251,188,
  211,209,57,198,227,215,64,202,171,94,45,36,
  159,247,14,234,6,76,143,34,53,60,54,75,
  137,255,239,168,4,51,25,2,5,8,196,47,
  79,104,247,90,242,208,86,31,250,211,26,127,
  204,216,255,216,217,84,177,203,242,166,192,57,
  150,182,232,67,235,36,80,193,80,28,200,178,
  162,3,52,153,74,237,232,109,15,110,155,108,
  7,214,151,166,57,71,179,212,224,210,238,32,
  155,213,253,206,63,233,57,93,75,84,43,39,
  215,47,225,151,100,85,245,182,178,57,212,28,
  217,209,22,189,47,16,139,26,79,61,194,38,
  32,175,214,68,96,53,203,148,252,158,201,190,
  148,76,196,1,155,183,186,54,34,217,216,85,
  250,54,185,9,201,81,166,228,36,23,67,251,
  23,162,83,40,65,219,194,96,165,58,42,64,
  234,68,55,122,47,13,54,244,215,248,17,216,
  154,18,16,95,209,18,26,79,87,127,249,58,
  185,163,181,27,255,120,175,178,3,95,247,198,
  92,160,52,253,240,30,188,81,6,105,151,184,
  162,217,39,32,240,224,195,155,20,220,216,169,
  236,81,195,110,66,221,225,50,224,232,68,16,
  191,247,76,114,15,9,33,71,130,53,15,51,
  162,182,170,186,214,194,159,59,206,26,71,208,
  52,251,47,78,79,53,240,51,199,174,176,168,
  249,203,180,247,240,110,77,65,66,2,169,163,
  157,111,236,237,239,255,247,19,21,79,55,136,
  227,36,70,110,39,225,199,11,42,1,177,64,
  249,235,217,14,154,149,94,221,207,98,36,157,
  182,115,217,174,75,241,165,220,133,242,223,51,
  195,3,58,62,90,172,227,16,205,194,15,221,
  65,207,186,78,246,7,178,7,66,216,138,10,
  22,86,21,246,150,202,160,118,68,188,75,13,
  203,26,225,225,226,153,212,40,133,154,51,243,
  29,38,78,97,2,66,64,99,254,66,57,239,
  211,228,76,130,64,22,64,30,9,135,41,97,
  165,208,134,23,0,78,210,211,197,189,8,151,
  32,187,198,78,134,118,215,119,26,245,90,49,
  223,235,193,17,218,237,246,183,63,201,160,65,
  219,12,252,46,28,5,250,7,175,221,78,73,
  148,242,87,84,153,172,254,50,43,66,217,67,
  210,67,13,189,141,245,219,39,140,84,3,173,
  49,90,87,43,42,197,16,91,210,136,177,114,
  217,17,158,235,14,14,152,250,102,214,160,253,
  182,59,154,129,51,162,217,62,89,182,44,45,
  72,68,186,238,67,245,145,221,167,63,207,182,
  240,243,188,244,139,101,82,39,204,170,90,101,
  162,227,23,188,4,110,218,238,30,120,43,109,
  170,92,89,55,243,54,161,188,181,49,101,62,
  105,174,25,241,15,106,246,3,184,88,177,242,
  97,212,82,120,173,9,190,179,5,27,145,99,
  174,161,120,189,31,244,170,104,119,98,199,106,
  198,198,153,174,52,202,58,102,124,89,77,78,
  1,103,210,165,195,54,69,228,178,114,228,3,
  50,225,224,38,235,146,255,96,12,47,205,160,
  9,184,237,11,156,191,87,28,71,95,223,22,
  10,40,62,160,56,216,115,193,21,42,64,108,
  184,166,106,45,15,229,68,66,92,52,222,240,
  179,233,197,56,243,254,115,247,18,50,79,173,
  59,210,20,175,52,186,227,84,187,210,42,25,
  122,149,183,89,138,52,199,6,161,70,160,164,
  24,72,37,26,185,219,186,201,184,126,135,163,
  215,39,96,40,221,165,207,61,18,29,154,45,
  37,192,223,61,181,30,236,80,12,10,83,51,
  205,26,47,235,218,219,27,147,199,225,164,70,
  7,73,17,81,11,144,13,231,168,50,156,231,
  254,221,108,188,14,172,175,72,218,95,187,179,
  0,39,219,253,183,152,219,69,243,55,238,242,
  5,234,8,213,71,250,207,205,187,254,134,47,
  253,40,190,40,185,18,62,81,232,169,37,71,
  39,35,66,91,156,247,71,56,184,230,153,50,
  43,193,32,59,204,154,104,20,229,61,84,253,
  88,114,187,238,199,143,49,241,94,242,154,168,
  234,61,201,88,4,235,218,63,18,145,202,13,
  17,233,43,195,190,5,8,84,19,176,175,166,
  29,174,202,44,244,43,91,39,50,12,246,84,
  216,228,89,52,47,4,254,156,187,106,226,15,
  202,189,4,5,247,60,97,16,73,227,222,94,
  198,1,209,213,207,40,63,144,221,199,28,232,
  177,171,51,150,147,78,83,55,37,239,154,19,
  63,91,146,163,39,72,118,43,35,38,223,74,
  52,25,60,41,250,246,184,8,166,140,148,113,
  95,85,243,58,75,183,71,224,198,139,205,161,
  12,62,26,246,146,168,68,95,14,86,232,61,
  37,189,37,207,0,197,120,79,160,159,86,66,
  33,231,165,139,34,71,1,92,250,221,75,71,
  107,248,185,74,212,200,164,92,246,60,48,162,
  19,196,81,155,219,84,170,199,40,2,212,56,
  203,43,66,155,163,117,170,176,171,34,13,72,
  218,99,196,154,49,228,235,203,73,156,216,98,
  25,161,89,192,254,95,58,74,13,221,30,80,
  174,63,185,30,232,40,53,68,60,146,143,39,
  155,93,72,79,195,205,25,216,35,231,2,195,
  244,185,244,170,169,224,147,146,163,37,75,25,
  225,252,60,65,156,43,66,34,81,198,229,51,
  78,155,156,15,45,127,160,3,19,50,211,123,
  77,155,85,40,1,121,149,89,117,252,23,48,
  56,245,218,33,32,184,218,166,223,208,49,88,
  205,192,180,225,143,242,178,65,27,202,174,222,
  162,168,101,70,183,39,77,200,233,74,187,186,
  25,177,199,18,207,197,215,13,45,20,206,209,
  165,220,201,186,226,96,5,91,65,16,26,26,
  161,56,75,37,177,7,115,79,95,2,66,106,
  164,41,196,183,173,68,239,58,170,59,148,255,
  10,28,239,107,243,53,65,97,169,28,148,244,
  15,59,117,77,94,185,45,172,242,53,83,71,
  167,191,207,204,170,58,169,20,75,55,163,85,
  7,79,235,255,142,216,196,53,63,69,36,152,
  178,79,43,33,144,179,122,228,222,110,159,75,
  183,6,167,179,183,195,76,124,224,63,223,215,
  93,123,188,19,151,244,232,221,192,57,66,8,
  26,227,49,5,162,38,178,234,29,5,214,165,
  19,226,96,198,57,234,168,191,99,32,91,198,
  119,174,195,226,167,38,207,235,104,201,86,17,
  20,213,79,242,206,141,50,154,73,197,179,34,
  7,205,235,93,22,67,241,16,212,140,149,154,
  21,101,91,225,14,210,212,9,92,142,141,82,
  223,200,92,170,59,42,183,16,193,83,78,207,
  114,196,36,138,178,88,37,205,112,156,27,158,
  120,231,43,93,93,234,118,235,170,77,180,53,
  106,227,254,233,48,174,45,78,15,244,53,60,
  107,212,248,224,157,59,255,28,206,253,89,9,
  14,13,219,68,236,99,5,196,14,186,219,60,
  193,52,168,47,194,102,186,104,70,62,36,74,
  172,68,100,160,194,217,254,223,150,220,203,166,
  18,164,32,189,185,223,217,112,208,181,83,81,
  91,21,136,224,142,171,66,244,144,44,102,213,
  200,250,162,171,155,80,2,19,28,21,86,251,
  235,79,2,126,253,186,58,24,144,222,65,158,
  96,12,90,88,23,15,203,46,93,89,191,177,
  112,6,56,235,103,4,179,210,243,112,141,225,
  80,97,243,73,147,112,208,226,146,54,62,117,
  243,213,47,189,158,244,221,41,46,53,22,35,
  40,159,74,198,202,62,10,225,130,14,187,140,
  233,74,54,47,169,241,124,47,51,181,203,89,
  17,79,217,65,220,173,163,188,66,30,205,34,
  255,227,30,231,64,181,225,113,194,236,188,232,
  84,6,233,235,245,10,213,117,207,153,97,230,
  208,28,3,65,97,107,26,66,164,198,222,101,
  63,231,5,253,200,200,234,230,147,224,74,253,
  39,169,213,255,195,107,247,64,188,165,43,226,
  229,71,36,151,78,104,10,222,10,15,246,118,
  148,248,74,32,216,175,65,225,3,196,227,112,
  195,170,69,243,213,211,24,160,3,156,55,166,
  233,76,17,141,186,242,71,224,42,6,175,232,
  204,27,225,172,255,110,186,92,47,172,219,56,
  250,150,103,86,74,96,16,3,51,194,6,196,
  199,200,190,17,163,7,98,227,186,0,61,19,
  54,120,73,62,100,245,55,178,102,11,65,236,
  109,139,14,141,187,177,107,170,59,57,174,71,
  5,15,74,205,97,191,11,207,244,155,173,71,
  59,185,18,214,172,112,220,31,1,140,31,44,
  189,142,91,53,232,196,180,190,221,241,214,125,
  173,35,107,235,147,23,113,58,181,48,236,201,
  95,62,240,24,232,38,160,8,50,16,171,165,
  244,68,172,55,218,59,53,71,22,218,138,249,
  73,94,197,61,52,34,10,249,13,246,218,91,
  5,208,250,180,49,29,10,32,74,100,222,34,
  253,64,18,194,6,211,149,107,234,71,226,201,
  160,49,182,121,77,184,153,106,114,90,153,42,
  164,209,69,37,235,23,238,187,89,172,42,14,
  114,48,187,186,47,173,35,11,0,18,209,45,
  36,2,163,88,224,54,123,251,127,61,206,11,
  113,49,169,8,45,77,238,78,238,205,41,175,
  168,6,234,19,143,153,75,231,173,179,174,190,
  214,179,69,243,67,27,162,145,165,69,31,153,
  89,33,67,219,200,227,6,58,21,93,166,174,
  13,130,226,81,72,159,86,225,50,1,166,237,
  207,24,3,55,210,74,85,240,172,255,215,58,
  227,147,220,84,98,9,63,46,83,177,132,170,
  20,152,84,67,234,25,164,149,17,147,21,69,
  196,213,43,50,77,237,251,194,242,252,249,254,
  237,74,121,178,155,53,244,178,94,71,93,5,
  197,189,8,87,229,164,246,41,233,4,56,250,
  86,184,108,82,154,236,114,65,208,113,91,84,
  186,12,187,166,254,232,199,227,86,172,156,243,
  207,53,176,186,53,227,173,24,78,46,232,130,
  95,26,237,253,39,175,95,111,161,154,250,92,
  88,39,183,14,241,142,153,14,245,106,2,172,
  81,108,41,191,29,41,46,255,94,235,84,27,
  200,84,207,138,0,3,70,151,203,174,103,105,
  63,58,53,170,94,231,81,82,190,210,28,176,
  197,193,223,19,252,8,64,79,198,64,222,3,
  210,183,81,232,165,30,29,159,198,34,190,82,
  204,11,199,2,252,14,39,56,234,20,194,182,
  112,38,190,184,37,107,61,156,98,247,146,107,
  50,164,77,192,164,67,247,2,19,243,235,235,
  165,94,162,178,160,171,196,215,94,178,152,229,
  60,176,211,157,100,111,62,82,238,23,50,62,
  23,141,221,40,201,116,5,249,49,150,198,204,
  206,228,19,182,0,74,224,64,241,88,41,171,
  14,171,47,164,16,125,97,37,61,69,198,230,
  95,131,209,47,204,229,254,228,45,214,13,39,
  81,0,76,0,62,248,173,180,198,171,28,18,
  173,26,69,177,157,66,196,251,159,94,4,211,
  251,202,223,102,68,49,35,222,30,177,150,80,
  19,134,249,208,197,226,17,74,113,37,190,240,
  93,230,31,241,31,217,6,158,80,94,84,247,
  249,179,182,97,235,72,180,153,16,84,170,63,
  198,10,29,76,182,224,180,159,222,162,161,2,
  59,107,168,116,42,1,67,11,71,14,184,165,
  191,97,236,189,90,62,24,105,13,166,247,245,
  191,102,242,69,30,161,246,42,255,198,179,249,
  189,177,49,68,29,254,154,159,248,220,34,191,
  14,194,11,161,178,167,75,87,157,211,6,154,
  151,184,205,99,158,255,201,153,121,179,55,205,
  107,181,40,27,75,1,26,44,62,82,166,64,
  180,185,108,17,82,149,10,235,63,4,180,54,
  30,188,167,59,144,129,74,79,180,234,86,86,
  14,19,51,73,151,80,250,119,220,152,60,89,
  229,228,81,183,66,72,241,95,227,25,59,223,
  164,2,182,65,146,48,196,225,94,234,153,190,
  234,62,47,47,103,57,193,179,246,244,177,39,
  182,241,33,164,193,41,158,205,62,229,76,185,
  107,238,103,149,44,216,244,174,222,244,10,194,
  74,80,203,179,19,1,103,6,118,92,225,21,
  71,12,39,169,219,173,11,46,161,34,18,213,
  158,143,242,59,190,1,213,180,211,163,2,201,
  52,225,16,32,13,207,0,216,253,77,85,156,
  100,33,47,231,255,101,164,181,10,253,104,220,
  162,17,250,49,49,83,117,152,78,217,114,75,
  53,59,49,229,162,186,229,178,47,34,72,181,
  185,207,107,186,184,25,4,182,100,139,21,32,
  27,202,207,215,165,60,110,241,47,165,169,7,
  202,83,254,16,180,196,198,11,34,114,205,160,
  196,188,101,224,11,179,205,73,212,59,199,201,
  44,243,160,57,227,158,170,218,178,1,183,82,
  193,247,96,245,46,174,171,197,16,21,217,54,
  79,250,202,17,200,216,170,239,48,79,216,158,
  87,253,163,200,72,0,183,175,54,201,179,11,
  240,94,79,111,43,206,250,23,227,211,85,70,
  237,78,177,202,10,29,97,174,178,191,60,181,
  106,253,228,224,179,4,105,90,24,43,58,30,
  54,25,60,225,84,105,54,56,76,204,98,196,
  2,120,5,160,48,181,42,40,55,24,249,51,
  176,14,244,251,23,112,196,114,83,208,218,172,
  100,40,69,59,58,49,106,244,29,203,186,108,
  190,161,32,48,81,86,207,84,250,58,23,65,
  214,11,3,156,220,72,193,190,32,252,62,66,
  172,29,22,49,220,188,53,247,75,212,230,195,
  57,28,13,145,65,170,167,66,41,71,38,90,
  60,251,183,247,78,247,38,159,79,232,43,98,
  169,12,66,214,193,21,32,53,175,209,3,195,
  167,2,46,244,72,54,22,254,212,215,53,93,
  161,89,30,32,93,77,227,24,188,2,9,10,
  240,7,72,185,193,236,84,82,63,29,1,89,
  198,215,247,157,198,168,141,34,29,41,32,167,
  244,6,243,217,39,102,145,164,173,34,53,66,
  174,239,11,235,88,226,245,52,17,6,28,158,
  243,42,191,151,197,204,5,123,235,189,51,58,
  249,68,214,16,212,199,88,79,73,7,191,184,
  61,215,180,221,37,198,207,248,209,104,45,35,
  176,160,178,173,203,212,26,34,87,72,172,84,
  1,255,245,176,249,192,209,248,106,221,149,76,
  109,153,21,20,197,74,2,60,176,54,198,221,
  121,195,222,112,191,12,192,23,236,239,152,48,
  75,17,91,212,247,168,198,84,63,46,206,151,
  23,230,179,41,23,219,23,178,94,161,5,183,
  198,191,66,197,190,56,173,60,168,35,210,154,
  61,200,200,159,215,40,242,26,41,36,61,70,
  14,27,238,9,8,249,95,16,194,1,236,224,
  182,224,204,19,41,213,62,201,176,196,77,30,
  174,173,170,252,68,248,43,73,210,66,163,129,
  222,164,29,69,90,74,34,162,117,118,187,14,
  251,18,239,21,18,73,99,193,197,163,180,8,
  222,35,187,202,173,145,239,167,170,198,81,252,
  27,206,253,100,56,218,205,139,9,53,25,51,
  236,101,71,242,168,243,110,112,187,220,46,55,
  47,180,226,221,73,228,232,179,202,88,69,45,
  190,28,5,7,237,179,201,36,228,54,53,175,
  29,32,26,225,187,231,194,241,195,185,75,174,
  99,65,123,204,216,243,15,184,111,197,32,87,
  102,88,211,73,86,35,236,166,233,29,189,240,
  35,145,37,22,155,231,255,161,67,240,207,16,
  84,38,24,44,21,203,56,174,99,171,64,75,
  12,243,204,98,30,55,58,43,106,53,186,67,
  11,82,203,172,199,237,136,9,80,253,52,69,
  53,172,109,216,238,21,199,145,165,83,97,173,
  16,181,202,159,14,83,159,107,182,66,219,238,
  165,189,226,38,16,245,88,75,104,81,66,60,
  213,216,94,16,250,55,67,170,174,122,34,25,
  150,194,169,90,6,38,234,243,54,39,14,191,
  12,2,163,253,248,249,162,255,189,174,237,196,
  40,80,108,200,145,141,10,53,211,117,165,82,
  166,222,222,230,20,171,158,182,113,40,212,191,
  164,101,100,62,233,246,27,38,8,15,249,150,
  60,58,7,228,30,37,199,65,85,28,60,46,
  98,30,195,6,99,243,174,150,239,167,249,54,
  110,176,170,159,236,221,231,254,24,192,219,2,
  206,226,97,110,50,173,220,116,72,1,22,29,
  22,239,206,28,181,252,226,103,108,56,213,148,
  77,61,9,147,48,215,177,48,244,210,244,198,
  0,116,36,71,147,160,117,75,195,22,243,38,
  50,61,185,189,98,227,157,180,225,18,224,153,
  168,212,193,224,177,51,241,92,185,228,58,197,
  80,210,33,60,70,243,85,9,151,239,173,199,
  82,205,255,4,247,197,197,200,168,42,94,232,
  21,41,4,101,53,192,103,174,40,35,35,69,
  50,13,250,48,234,101,88,200,20,212,9,155,
  177,57,188,212,161,88,12,189,63,177,8,205,
  25,155,3,85,200,98,99,247,200,54,60,38,
  186,146,2,50,74,63,254,24,157,35,108,107,
  94,71,194,219,104,55,40,36,211,23,254,235,
  169,221,169,64,20,198,166,26,36,207,36,112,
  198,143,204,255,20,164,196,55,30,242,250,87,
  221,199,54,30,165,126,1,168,244,66,49,68,
  64,78,93,5,19,176,154,14,94,221,106,213,
  29,166,197,255,219,178,251,196,54,77,195,9,
  66,74,15,66,40,33,37,202,70,176,14,230,
  4,58,1,150,178,63,164,245,13,84,4,245,
  54,152,225,27,47,0,235,210,30,178,85,226,
  171,237,161,188,253,69,147,210,86,191,198,32,
  10,200,56,2,147,218,28,235,219,101,151,243,
  9,88,47,249,174,19,48,87,29,2,35,165,
  209,244,68,89,254,39,9,175,103,63,89,66,
  20,68,6,209,19,2,227,44,203,79,99,240,
  188,103,92,106,172,163,202,65,188,14,51,75,
  246,224,245,174,51,152,208,11,0,17,226,238,
  218,146,83,151,193,91,153,48,240,54,180,186,
  183,195,18,188,164,169,249,71,94,185,227,198,
  250,11,74,50,253,109,177,29,70,55,216,114,
  67,40,89,23,183,229,7,31,26,72,224,90,
  20,84,231,243,157,214,186,192,7,67,160,87,
  97,178,233,232,186,163,152,14,7,235,75,194,
  224,148,69,127,227,90,173,61,252,225,62,57,
  71,188,11,229,187,19,32,29,149,233,188,231,
  90,172,49,220,195,171,171,220,220,3,7,193,
  252,12,0,7,50,56,243,25,189,60,14,11,
  246,165,38,152,0,131,215,183,9,32,21,55,
  90,169,48,149,55,221,223,23,23,62,190,16,
  34,197,158,173,5,69,2,215,254,189,242,168,
  194,11,155,177,44,33,104,38,93,187,186,92,
  116,85,86,205,7,106,55,222,255,18,210,200,
  189,233,248,60,98,242,90,57,73,40,254,179,
  61,19,45,164,72,10,227,20,17,209,67,3,
  182,206,12,222,183,186,76,200,143,140,5,211,
  187,193,50,83,40,5,74,214,232,65,226,76,
  193,176,92,42,217,26,234,86,45,236,7,106,
  13,178,182,243,209,248,16,185,76,193,224,30,
  66,34,238,78,74,171,23,166,15,151,239,95,
  16,70,155,42,95,62,41,76,83,65,66,1,
  243,239,209,227,204,207,206,9,77,12,178,23,
  150,68,180,243,171,231,179,226,53,81,66,227,
  194,141,242,226,187,39,91,153,157,4,39,226,
  72,225,63,166,92,16,228,166,72,254,196,40,
  73,165,2,60,45,181,80,32,217,196,205,93,
  243,56,247,179,23,13,37,68,26,156,150,89,
  141,4,80,61,154,54,255,11,96,195,12,194,
  247,100,112,219,239,5,163,64,41,2,162,104,
  46,167,17,229,47,155,216,2,159,243,147,101,
  35,225,222,209,211,187,204,127,182,252,66,235,
  213,30,249,197,225,229,238,209,49,251,55,209,
  186,156,247,4,72,53,83,175,110,103,172,63,
  223,251,243,213,209,255,18,104,42,224,210,246,
  179,249,189,168,239,211,166,222,49,182,241,9,
  105,153,43,89,163,81,94,84,173,9,184,243,
  102,210,218,75,159,239,222,213,56,41,155,27,
  196,195,56,202,60,165,249,252,110,194,193,209,
  114,223,43,226,0,95,13,193,58,73,9,58,
  24,211,223,169,47,249,53,171,221,58,253,25,
  38,61,74,213,71,178,246,54,171,215,255,195,
  207,80,231,33,241,190,230,222,169,244,193,21,
  21,85,248,123,73,64,232,234,217,119,175,171,
  172,51,14,211,164,62,197,234,222,180,210,23,
  237,91,207,218,201,191,221,33,229,205,225,148,
  226,33,16,111,208,134,171,135,109,175,36,33,
  35,249,36,91,171,69,16,253,26,24,48,227,
  78,179,196,30,218,60,203,192,196,178,196,162,
  189,90,181,177,165,89,87,239,235,13,214,150,
  189,35,212,177,97,21,178,160,198,150,64,229,
  113,78,175,51,224,209,1,68,76,15,10,81,
  115,54,109,224,85,21,216,77,187,204,86,108,
  105,50,7,218,89,236,247,150,182,213,246,73,
  222,29,213,72,63,73,210,212,82,30,179,52,
  238,73,242,227,172,147,66,30,28,166,13,77,
  65,247,42,208,21,30,203,205,72,65,102,197,
  37,217,238,70,38,181,32,200,223,93,47,227,
  26,195,117,86,182,10,194,44,31,30,204,45,
  50,186,100,80,100,200,77,173,218,236,204,18,
  58,247,165,73,243,7,192,63,70,239,54,96,
  1,159,62,2,238,230,28,189,101,238,202,255,
  62,114,26,62,43,228,93,95,191,243,75,201,
  231,208,186,218,67,181,73,15,167,16,40,186,
  255,69,29,207,19,4,6,82,15,53,173,38,
  218,244,195,31,53,35,190,48,98,89,254,170,
  196,251,190,10,64,23,163,242,82,231,52,240,
  85,217,75,63,164,76,167,187,208,169,179,211,
  86,178,201,142,59,74,32,249,80,214,15,26,
  17,174,53,217,57,170,242,226,13,206,90,95,
  211,101,5,157,194,77,207,96,178,225,217,193,
  196,88,3,100,10,252,238,85,185,205,47,246,
  192,12,144,109,195,74,114,235,26,240,32,180,
  105,38,48,22,233,253,103,183,44,49,98,72,
  17,48,170,193,198,224,186,158,92,156,109,171,
  110,2,59,203,115,6,219,25,93,155,204,1,
  187,218,35,14,64,85,232,4,226,143,231,99,
  18,169,43,185,36,70,84,202,78,95,243,152,
  250,13,183,3,31,163,192,14,28,85,38,161,
  71,103,148,174,65,57,162,82,143,4,169,187,
  38,200,81,242,29,211,69,202,68,36,199,99,
  65,251,37,243,67,101,185,88,16,37,218,52,
  243,172,198,87,245,201,79,49,171,134,67,9,
  244,144,33,83,75,11,41,182,16,175,16,110,
  117,70,104,55,192,47,174,214,95,158,68,76,
  94,255,212,46,204,228,69,231,224,199,169,3,
  115,246,182,244,180,34,85,150,84,161,232,176,
  62,43,189,53,208,209,119,210,82,156,104,25,
  73,88,91,27,7,232,83,29,57,176,80,22,
  195,17,82,218,48,230,240,253,249,142,226,108,
  242,187,3,63,198,207,202,144,240,243,26,71,
  24,144,183,11,170,30,161,253,225,214,194,102,
  162,54,182,208,229,210,194,60,18,127,189,5,
  168,165,87,179,185,53,186,222,95,242,49,135,
  94,196,18,66,221,168,34,209,164,179,182,63,
  248,240,164,121,216,165,242,186,230,245,232,221,
  47,108,178,71,61,165,32,81,11,229,234,44,
  31,236,69,208,79,42,177,33,189,166,22,18,
  211,244,246,213,8,26,207,30,26,74,14,17,
  214,178,22,77,19,157,212,180,117,33,23,59,
  5,183,33,28,32,217,201,93,192,65,206,228,
  84,202,207,55,193,67,18,155,86,153,84,173,
  194,60,5,209,55,13,206,72,182,24,240,25,
  206,41,212,230,64,104,218,55,238,231,93,114,
  236,19,220,61,202,248,210,86,254,30,240,219,
  14,23,205,167,72,251,39,127,67,151,44,72,
  237,242,252,208,2,13,229,67,227,62,66,155,
  162,180,84,55,27,19,183,208,101,247,241,203,
  23,20,79,226,0,57,241,91,210,206,168,38,
  157,249,223,187,241,235,251,56,153,90,148,20,
  223,88,28,36,199,196,251,230,167,111,26,16,
  32,182,203,235,80,30,153,24,232,61,175,25,
  237,91,162,54,242,177,68,188,40,237,223,28,
  93,237,241,249,131,13,43,183,205,64,184,229,
  52,120,227,9,139,199,61,73,172,207,76,174,
  64,220,168,149,217,44,230,223,20,235,236,193,
  10,90,204,36,150,221,79,205,239,11,60,51,
  153,24,156,105,149,38,50,43,212,40,160,28,
  191,171,47,205,5,106,80,57,80,52,166,35,
  154,28,171,8,154,79,237,71,75,114,223,164,
  40,14,153,125,57,210,153,208,42,1,190,60,
  87,253,47,36,148,63,185,240,113,255,208,67,
  53,3,110,186,102,155,226,52,183,206,67,159,
  85,174,86,247,253,4,90,236,237,163,166,84,
  198,65,94,219,188,204,42,23,51,192,182,225,
  48,201,117,192,180,237,205,100,116,210,242,188,
  221,52,195,119,86,89,42,74,247,111,172,2,
  65,48,89,246,198,192,212,58,32,51,167,225,
  94,186,71,69,21,47,49,83,6,198,14,0,
  75,153,58,174,167,26,231,90,110,242,13,166,
  166,1,183,151,176,168,84,151,180,80,18,202,
  62,239,10,151,55,69,249,27,64,89,197,249,
  239,104,9,253,242,246,245,103,155,59,74,146,
  177,123,44,253,167,167,107,233,254,192,30,186,
  77,9,87,244,185,154,75,115,90,201,173,195,
  222,179,60,229,190,91,227,122,29,239,100,207,
  87,90,89,59,210,42,161,17,0,69,70,55,
  212,64,37,107,189,213,203,174,10,209,238,48,
  90,226,148,227,104,56,81,197,218,56,49,83,
  195,187,205,145,181,83,157,190,45,186,76,30,
  197,168,251,198,196,99,167,36,241,199,51,250,
  182,49,19,2,181,115,83,61,239,147,192,109,
  189,151,77,15,26,198,138,21,86,217,248,211,
  184,241,48,248,1,212,62,40,15,55,94,191,
  57,198,185,45,254,254,75,96,34,78,222,42,
  206,170,246,238,241,94,242,226,241,52,63,238,
  56,110,214,156,177,174,180,145,102,152,35,245,
  10,7,15,92,227,69,49,170,243,210,27,200,
  187,44,212,71,198,178,4,15,68,13,199,255,
  77,244,103,12,156,15,70,111,55,37,64,226,
  183,82,61,234,236,216,226,56,60,50,25,48,
  239,235,202,251,65,185,200,232,8,31,199,165,
  82,85,176,237,80,11,69,71,2,196,146,97,
  25,231,204,153,27,197,18,61,32,68,154,40,
  96,17,144,246,148,5,104,164,76,196,64,30,
  84,222,207,235,54,255,183,72,251,61,93,49,
  61,29,52,0,76,229,151,203,187,204,251,243,
  207,215,216,94,243,107,138,61,97,97,9,45,
  51,206,232,95,213,180,164,235,175,82,247,86,
  195,12,36,22,169,226,27,215,170,243,10,188,
  221,192,58,247,255,67,244,100,69,57,91,36,
  189,22,103,242,55,82,167,72,80,3,183,53,
  79,52,163,192,20,70,58,209,65,190,181,227,
  228,227,112,222,87,218,85,7,75,63,6,18,
  207,174,245,203,160,29,12,102,3,82,209,22,
  204,162,99,111,5,231,229,65,198,161,223,73,
  73,17,196,210,214,168,85,33,215,115,97,16,
  142,47,6,72,69,67,69,161,98,95,208,95,
  219,33,110,164,222,241,40,65,248,73,110,135,
  212,62,100,176,232,245,96,7,47,214,104,73,
  183,104,215,19,65,54,23,228,72,101,207,251,
  65,241,188,75,42,66,228,186,112,74,45,163,
  20,52,34,224,237,19,187,254,103,44,177,203,
  28,64,20,85,230,204,166,95,70,46,17,205,
  40,15,225,55,212,31,189,103,2,184,180,218,
  43,242,105,100,214,146,248,63,31,169,78,34,
  62,61,242,73,224,161,251,60,23,66,217,74,
  191,218,64,27,69,231,47,239,90,7,16,28,
  44,160,166,58,208,84,230,194,233,183,178,27,
  168,241,205,219,109,177,160,142,17,14,191,224,
  25,72,58,93,76,205,216,170,168,240,59,70,
  212,205,199,12,9,83,2,208,52,148,7,153,
  149,21,159,29,247,208,40,172,219,157,252,155,
  138,229,143,190,242,173,55,17,36,31,78,77,
  55,103,202,220,33,245,50,172,233,209,232,165,
  212,5,49,250,38,1,82,157,28,170,196,172,
  139,114,43,248,1,196,212,99,32,14,37,237,
  218,26,160,2,83,9,42,29,163,212,251,76,
  45,221,205,226,105,30,219,247,51,165,50,0,
  63,75,224,43,219,50,32,93,213,252,76,161,
  167,93,152,52,177,101,89,207,181,47,236,175,
  91,116,42,219,178,39,16,209,33,0,230,111,
  246,205,210,211,51,162,213,243,142,57,228,210,
  191,87,216,215,162,2,208,228,52,217,0,193,
  231,23,88,189,78,30,202,30,151,17,25,242,
  54,39,211,129,196,106,40,78,171,9,47,238,
  30,222,156,1,103,250,95,196,218,91,102,50,
  62,75,195,29,68,245,65,177,201,103,217,81,
  247,207,234,26,202,37,23,159,154,45,63,193,
  62,51,15,54,75,220,179,223,245,211,197,213,
  197,160,239,26,217,236,34,177,39,33,210,50,
  192,172,250,105,5,69,87,166,191,27,202,209,
  193,233,166,202,20,3,215,235,50,179,199,78,
  49,142,180,80,218,204,26,57,173,26,146,219,
  234,98,63,250,94,216,160,8,52,208,29,253,
  181,95,150,212,220,68,45,58,74,99,15,86,
  180,223,221,74,21,249,225,36,54,68,208,161,
  79,72,194,163,14,216,190,23,244,185,152,69,
  28,219,42,109,218,246,176,164,151,7,42,169,
  254,149,46,110,163,135,231,154,13,37,244,169,
  40,245,56,227,245,192,36,162,253,204,230,61,
  92,155,217,198,165,43,104,26,93,198,139,187,
  163,164,207,208,25,36,39,91,216,230,195,15,
  239,165,238,130,89,31,65,201,63,160,60,72,
  29,228,222,211,192,21,121,89,94,221,38,157,
  205,23,57,93,3,37,87,11,156,145,17,173,
  170,107,225,206,222,174,34,180,21,245,242,220,
  77,89,140,145,146,84,100,182,254,242,172,159,
  104,248,68,43,53,95,181,102,237,222,89,197,
  43,48,213,131,156,103,32,103,196,137,37,224,
  32,10,201,153,25,249,167,74,15,84,152,208,
  254,205,194,145,148,195,225,58,230,176,43,191,
  245,34,88,1,176,88,159,173,157,63,251,59,
  63,175,161,228,182,98,28,234,254,220,65,24,
  144,152,239,57,50,34,228,7,73,198,98,197,
  173,74,60,100,155,59,12,163,179,35,189,31,
  231,1,69,29,38,224,223,49,161,203,75,246,
  188,101,67,56,194,88,90,165,170,182,199,86,
  2,64,250,47,200,236,150,232,254,58,250,188,
  232,84,5,20,21,82,10,65,220,100,201,45,
  19,115,66,160,3,28,20,244,167,226,90,88,
  211,13,56,96,222,160,31,210,209,11,36,76,
  246,30,45,186,33,96,212,169,236,177,138,171,
  234,111,89,118,146,87,65,174,196,223,40,203,
  84,207,32,118,169,243,236,75,46,56,15,232,
  234,175,209,204,135,68,88,100,236,240,90,188,
  42,185,229,230,87,223,82,39,234,182,156,212,
  49,230,43,224,247,22,220,56,17,94,84,135,
  78,127,167,63,137,77,82,197,84,88,184,48,
  83,48,3,214,42,203,64,27,159,53,9,67,
  102,140,220,235,250,239,99,28,193,152,63,44,
  113,46,181,0,245,36,19,176,35,191,138,236,
  95,246,180,223,203,96,88,36,104,165,214,70,
  191,224,100,163,45,2,171,92,60,221,2,56,
  44,83,254,45,197,77,47,56,84,189,22,14,
  212,183,71,20,182,150,209,242,42,49,76,138,
  9,176,220,49,227,191,219,63,200,1,245,145,
  45,81,167,242,44,201,99,77,89,173,219,252,
  222,164,238,189,70,149,230,126,176,171,250,77,
  245,36,211,88,147,231,240,167,79,30,199,170,
  34,239,108,188,33,21,27,95,119,248,183,247,
  124,130,91,47,69,228,191,160,27,204,208,197,
  231,211,66,234,184,224,126,253,28,38,191,244,
  198,11,168,197,182,21,6,29,1,63,172,66,
  29,42,0,69,176,89,242,163,220,249,180,225,
  236,46,5,232,7,55,71,77,248,224,4,163,
  81,243,41,162,191,106,232,195,212,8,90,147,
  71,206,221,243,151,248,192,254,6,93,196,75,
  87,25,79,177,208,83,162,233,17,85,244,129,
  229,226,20,36,177,157,26,246,245,184,85,215,
  73,63,81,11,153,244,109,169,4,185,88,101,
  205,16,211,30,98,152,76,231,78,201,10,27,
  175,43,197,254,168,42,109,161,231,235,207,59,
  77,1,56,189,60,20,114,216,211,64,218,9,
  170,246,23,207,191,225,108,44,147,196,76,201,
  180,188,212,75,6,22,44,89,37,21,176,92,
  9,6,97,255,226,21,22,31,206,46,43,235,
  1,197,239,177,206,189,235,26,147,223,158,188,
  242,2,229,16,147,51,224,232,22,44,143,15,
  218,50,71,226,70,96,83,93,3,1,78,3,
  195,169,2,246,146,167,184,202,163,49,28,23,
  182,48,78,4,77,33,163,40,18,66,39,55,
  62,177,23,248,253,34,176,6,172,188,80,76,
  199,203,22,203,200,64,33,166,44,185,176,22,
  222,90,237,12,89,25,12,91,203,30,225,186,
  39,251,245,179,0,10,78,90,60,33,40,75,
  59,255,55,186,154,21,143,82,59,139,90,232,
  25,53,250,34,143,201,92,10,94,228,80,81,
  191,41,27,51,153,12,218,122,165,223,218,162,
  29,188,72,236,41,158,132,54,187,164,18,62,
  249,232,238,190,238,193,48,55,187,168,183,225,
  4,242,48,246,91,243,160,124,64,63,194,224,
  182,76,83,156,206,220,214,250,174,22,161,238,
  103,168,90,77,50,199,164,178,190,105,203,240,
  176,161,195,170,231,189,216,199,119,90,199,43,
  250,151,69,239,207,82,69,17,111,233,88,107,
  75,172,114,194,147,171,68,236,215,163,179,158,
  44,49,9,179,177,181,217,230,21,85,3,187,
  247,173,169,199,187,55,250,75,30,176,97,53,
  108,7,183,12,181,226,31,7,239,229,45,28,
  113,240,34,36,90,89,216,40,4,70,234,147,
  211,240,30,105,147,67,223,61,206,78,168,177,
  201,170,220,243,172,16,37,85,63,254,156,73,
  74,202,230,77,53,224,84,199,234,240,247,35,
  105,167,24,180,159,205,75,24,99,181,36,188,
  111,212,222,192,192,237,178,205,37,216,198,10,
  240,249,32,149,199,131,228,20,252,245,102,156,
  89,163,80,208,232,23,226,27,32,182,241,7,
  32,165,20,55,28,7,49,254,89,86,75,3,
  0,11,171,60,214,6,242,26,225,76,6,86,
  111,13,106,73,48,198,109,93,78,134,70,66,
  82,74,84,62,238,52,114,64,186,209,31,219,
  9,56,184,58,204,237,218,243,23,156,154,197,
  63,45,5,163,160,24,15,211,220,156,0,32,
  216,217,49,50,208,249,84,209,92,35,216,228,
  5,14,82,155,53,39,3,74,90,6,237,51,
  41,4,140,189,193,243,154,7,78,108,147,52,
  55,246,67,59,64,155,75,176,163,225,210,8,
  71,54,152,67,211,166,44,167,59,96,65,164,
  100,21,197,211,6,106,253,99,187,171,61,173,
  194,180,153,113,153,207,249,109,211,216,220,234,
  157,199,142,72,156,208,209,43,206,227,48,46,
  178,233,8,200,75,98,56,71,10,84,209,236,
  173,170,48,143,101,180,110,172,206,211,252,205,
  118,67,4,205,100,145,59,43,199,113,0,246,
  181,100,162,34,175,208,61,237,162,242,195,76,
  231,197,14,248,255,215,164,24,1,200,8,59,
  122,202,28,93,249,201,218,200,226,97,77,228,
  215,58,20,235,108,201,185,115,69,199,109,158,
  26,254,59,63,196,31,227,104,15,16,66,85,
  92,10,181,59,204,44,184,97,76,206,109,26,
  183,104,220,151,237,24,192,152,32,214,149,249,
  212,115,70,62,145,3,195,218,201,253,34,115,
  227,243,85,32,11,83,70,153,46,33,3,90,
  228,57,204,254,138,38,24,61,138,248,68,113,
  32,87,92,230,1,118,219,103,201,137,42,164,
  204,148,99,183,198,165,215,37,38,32,102,38,
  137,141,153,196,24,225,77,161,65,81,168,46,
  147,26,54,127,2,42,94,39,0,125,177,255,
  48,220,158,177,101,199,225,9,18,176,85,227,
  233,56,163,179,182,235,137,15,216,36,226,176,
  206,246,112,79,138,4,72,218,57,212,89,5,
  32,41,81,28,44,59,201,157,228,180,161,58,
  213,250,176,174,194,40,22,63,240,36,220,229,
  177,180,201,95,38,47,235,92,161,122,32,217,
  65,64,163,21,223,180,165,193,72,95,60,60,
  194,48,54,4,57,245,155,202,50,78,58,22,
  213,177,10,234,6,240,152,156,204,229,203,150,
  12,73,243,124,161,202,157,68,31,38,26,200,
  31,247,246,197,142,160,67,215,6,4,77,39,
  57,160,83,95,94,245,218,196,86,73,222,6,
  81,255,69,255,78,3,229,90,194,205,77,247,
  192,28,112,98,217,254,29,68,237,46,41,10,
  188,104,33,184,14,36,105,173,104,223,19,95,
  239,141,253,48,228,9,184,79,49,39,181,216,
  95,197,20,111,234,197,114,58,7,71,34,220,
  177,39,35,69,166,99,100,25,3,244,192,36,
  72,109,58,40,73,69,238,242,251,89,219,220,
  254,15,230,192,171,249,87,199,238,55,143,160,
  197,167,93,170,26,255,57,162,67,143,86,78,
  74,68,152,49,51,102,208,154,53,51,11,83,
  218,59,15,87,185,15,44,56,48,154,93,106,
  109,190,208,171,216,247,209,94,72,253,162,47,
  57,138,180,217,18,222,231,90,81,53,87,171,
  170,94,205,72,190,159,200,213,190,232,67,30,
  2,52,236,146,161,83,91,119,246,12,253,11,
  29,93,211,105,76,204,97,36,29,111,164,28,
  94,189,16,78,67,41,84,172,242,220,231,26,
  92,157,12,156,197,53,179,55,64,31,3,216,
  216,203,63,172,120,82,171,121,159,223,71,223,
  237,21,152,23,195,205,50,49,204,140,71,96,
  247,125,58,149,117,231,100,56,53,168,197,79,
  251,230,178,161,100,194,2,183,1,43,110,47,
  194,147,160,152,255,184,94,146,42,33,197,220,
  68,254,226,226,102,234,112,153,113,252,31,48,
  35,34,170,85,104,172,149,57,227,234,166,1,
  14,144,31,101,216,116,106,164,47,159,73,30,
  47,163,175,184,232,174,199,158,103,117,244,57,
  57,209,210,54,78,39,67,229,54,7,203,182,
  86,36,185,207,13,32,224,99,38,182,20,22,
  57,245,219,249,193,45,191,28,9,49,94,8,
  30,226,31,56,9,253,72,8,245,224,186,98,
  174,248,239,30,83,187,234,170,213,124,213,85,
  200,134,179,255,5,44,179,82,199,17,20,87,
  121,10,149,64,1,132,81,242,27,246,240,69,
  67,64,12,118,187,203,1,146,17,42,80,92,
  21,17,231,8,111,186,20,3,68,8,208,22,
  182,138,178,95,214,24,12,102,233,183,240,99,
  49,83,98,64,14,67,212,134,108,173,215,10,
  14,35,216,55,69,4,15,159,39,205,156,167,
  175,98,2,162,228,76,5,181,75,88,196,133,
  18,152,227,180,104,184,81,43,168,15,88,133,
  163,158,214,159,19,139,103,185,217,149,78,209,
  34,116,92,236,195,61,232,220,218,67,0,236,
  173,80,64,84,74,37,137,58,180,223,95,252,
  74,222,98,224,206,178,208,72,94,129,111,43,
  253,3,252,22,29,143,156,24,16,11,81,245,
  228,91,171,132,231,254,44,244,39,209,20,249,
  208,56,146,221,75,61,26,93,99,171,47,11,
  209,173,28,135,248,155,215,9,185,160,189,47,
  199,246,161,159,21,225,7,234,105,6,30,210,
  18,33,109,68,218,55,189,125,213,154,191,60,
  52,26,121,59,167,59,4,169,154,173,3,202,
  196,12,202,168,10,56,51,104,226,46,112,252,
  25,174,193,209,67,225,217,84,103,230,56,242,
  148,228,26,64,208,49,112,24,19,44,156,68,
  110,85,70,7,6,118,168,110,48,183,19,73,
  84,91,77,246,250,191,114,2,67,196,112,115,
  188,160,103,44,241,50,41,245,227,187,0,230,
  43,99,230,138,33,147,207,163,165,37,213,7,
  229,88,1,180,107,192,223,46,246,78,9,18,
  183,211,52,197,150,68,109,243,118,16,64,45,
  31,249,66,68,234,208,59,110,46,211,93,163,
  232,218,211,228,11,82,55,163,111,199,42,56,
  246,101,22,37,157,158,217,171,46,44,240,5,
  16,210,171,154,5,35,164,235,176,60,54,87,
  230,87,241,176,96,67,150,54,161,33,186,82,
  253,107,225,92,166,66,37,207,111,45,22,176,
  33,88,35,3,250,77,27,23,213,66,220,13,
  233,234,195,206,237,184,80,193,214,179,24,60,
  71,155,13,226,77,194,79,181,95,26,211,237,
  156,2,221,166,78,33,105,74,202,52,182,163,
  239,118,47,204,232,91,14,68,43,188,18,247,
  223,40,45,71,10,23,180,137,72,192,36,107,
  58,184,2,139,32,76,144,215,48,240,245,118,
  107,145,182,188,196,175,3,93,58,200,245,113,
  42,206,234,61,221,226,86,205,190,64,88,127,
  31,174,28,182,238,193,9,209,220,246,56,219,
  123,171,159,59,253,233,33,146,189,203,52,204,
  161,85,237,25,10,0,18,176,41,251,200,198,
  24,9,203,91,178,189,119,49,202,36,221,31,
  163,148,111,150,85,187,210,212,211,54,35,168,
  61,148,178,188,66,230,102,237,22,245,64,89,
  26,153,208,96,54,52,11,172,10,62,178,100,
  214,87,129,37,63,4,233,244,234,33,182,245,
  63,24,54,217,80,43,60,74,182,92,108,43,
  236,219,154,17,253,146,102,228,242,13,164,227,
  231,211,63,64,79,189,63,78,3,216,167,168,
  205,251,43,127,113,177,104,56,172,15,207,68,
  232,138,46,173,197,12,76,216,155,89,230,42,
  100,79,57,162,27,239,36,255,51,161,186,102,
  179,44,52,190,22,241,174,140,143,239,115,186,
  222,79,4,252,163,92,186,181,152,232,186,79,
  94,33,253,46,40,166,168,22,214,195,228,102,
  186,24,198,43,99,37,213,94,63,189,101,156,
  152,96,100,186,207,197,172,48,171,44,11,73,
  86,26,26,152,202,31,98,108,249,67,40,73,
  31,108,180,182,64,217,189,75,197,44,120,34,
  176,118,212,203,152,159,91,217,183,197,176,219,
  21,173,106,59,43,172,235,65,75,226,46,201,
  97,233,22,227,45,18,164,1,25,25,220,61,
  234,172,108,227,211,57,172,204,98,8,111,82,
  199,44,167,158,176,168,9,191,67,80,86,180,
  76,94,155,157,99,39,255,52,95,144,209,73,
  212,234,168,190,221,230,247,51,15,187,227,251,
  17,237,237,34,93,203,228,222,233,240,248,238,
  32,154,4,32,90,247,5,185,189,158,171,53,
  20,181,102,131,85,37,246,66,24,238,42,68,
  54,67,74,28,80,104,249,198,2,210,178,17,
  141,37,113,83,35,247,184,29,99,193,114,175,
  45,58,224,168,93,50,254,171,185,9,213,171,
  171,44,11,139,158,180,238,59,162,50,49,186,
  190,66,193,2,154,224,97,168,44,91,211,160,
  184,106,67,122,164,25,83,11,74,231,54,171,
  252,21,48,146,21,186,140,245,97,72,238,45,
  32,91,219,100,36,235,188,15,156,59,53,209,
  5,79,55,245,103,161,238,222,21,86,54,182,
  0,20,57,183,16,216,179,255,187,88,162,28,
  157,189,23,90,83,33,86,33,46,201,188,122,
  35,26,14,66,40,203,55,34,64,98,59,9,
  205,100,230,165,36,52,223,229,163,203,24,43,
  23,96,167,231,42,205,186,191,101,112,11,191,
  180,27,231,175,231,180,161,89,184,71,0,80,
  42,69,68,222,171,217,8,142,196,167,186,32,
  233,81,18,205,247,47,94,185,226,22,254,57,
  31,196,231,234,73,165,147,233,83,62,176,255,
  10,14,199,92,189,191,233,11,194,90,94,13,
  59,171,65,100,28,64,226,26,199,24,221,17,
  207,40,174,184,145,34,35,93,22,86,78,97,
  83,19,91,171,167,251,156,205,247,90,195,228,
  179,99,86,55,244,187,215,31,245,206,212,181,
  215,204,16,50,178,137,36,56,234,173,93,98,
  166,184,80,252,219,22,210,18,0,221,48,230,
  191,179,69,101,84,194,179,243,182,114,12,7,
  165,47,229,233,209,186,91,2,47,113,75,157,
  7,103,10,63,158,3,227,17,205,92,24,48,
  143,248,118,244,181,62,105,251,243,107,32,86,
  200,57,229,248,219,59,200,252,106,6,196,212,
  59,202,91,49,27,222,90,228,211,6,4,199,
  162,198,230,139,209,159,7,217,122,35,186,60,
  23,166,75,8,71,66,180,68,216,65,229,190,
  223,250,230,42,7,251,183,88,59,46,0,43,
  211,203,77,111,198,84,40,207,117,213,54,194,
  46,34,58,250,241,71,220,254,16,126,78,65,
  48,109,237,100,209,35,241,22,68,17,1,225,
  195,91,191,16,147,28,83,20,184,91,0,0,
  195,202,200,110,1,102,231,234,165,58,17,153,
  210,106,32,178,159,187,37,2,233,88,8,104,
  74,155,54,171,216,23,98,174,60,201,160,237,
  165,230,234,10,162,168,163,51,15,3,59,140,
  101,174,54,214,249,160,80,64,90,170,73,59,
  238,244,255,2,171,212,25,72,57,159,108,34,
  41,56,162,91,64,14,195,73,168,184,102,161,
  94,42,129,216,173,153,207,85,239,198,249,66,
  248,188,8,238,12,91,73,91,3,190,54,246,
  145,48,186,91,34,14,214,254,58,249,187,24,
  40,172,28,162,53,67,2,102,162,235,95,164,
  189,207,149,70,199,179,30,6,224,3,105,25,
  48,96,191,110,103,245,187,244,202,18,83,68,
  0,129,19,158,195,48,207,65,14,194,179,208,
  131,250,139,69,21,31,203,219,167,244,86,199,
  2,209,145,190,162,201,31,178,67,188,65,13,
  183,51,192,68,69,37,25,188,233,168,156,165,
  24,228,14,81,39,154,16,236,185,17,31,226,
  49,177,178,211,87,251,37,76,176,100,60,221,
  180,58,76,79,6,62,117,27,56,217,91,162,
  225,164,195,114,180,235,64,50,39,125,43,212,
  246,100,230,185,21,20,2,73,163,57,31,211,
  4,58,245,65,15,9,109,163,2,237,152,243,
  27,50,145,45,254,225,239,97,191,5,255,112,
  195,151,201,154,41,16,13,175,138,225,17,218,
  109,22,223,157,106,22,188,164,183,208,251,10,
  77,233,197,223,101,48,40,0,241,44,14,117,
  87,18,14,29,1,219,189,214,92,190,212,73,
  114,251,174,179,215,20,69,67,32,22,230,67,
  77,87,198,117,168,206,66,178,78,242,148,55,
  27,6,35,47,170,72,169,255,189,243,159,172,
  178,222,204,243,186,177,227,101,18,158,174,48,
  93,252,87,166,229,66,83,63,189,163,86,160,
  199,181,164,220,9,111,179,109,225,238,201,54,
  101,35,87,173,240,201,54,33,46,153,166,207,
  160,153,213,150,145,80,158,197,7,58,86,196,
  216,46,16,211,3,183,182,17,187,223,61,187,
  202,194,20,40,62,169,39,245,19,239,226,65,
  102,194,3,152,103,208,153,194,48,82,162,226,
  26,242,165,165,172,92,7,208,61,154,41,0,
  247,223,54,213,167,217,205,229,237,238,17,164,
  212,63,79,9,187,88,188,249,185,203,2,8,
  26,212,231,18,70,113,26,41,74,253,22,216,
  207,10,95,200,207,253,84,138,230,190,83,90,
  38,235,152,202,241,185,199,251,13,84,43,90,
  221,86,34,162,71,18,212,227,51,107,98,169,
  5,165,84,127,214,180,235,208,186,87,74,176,
  202,181,242,78,179,29,89,61,164,61,191,10,
  192,49,163,123,68,95,178,230,29,254,210,85,
  104,182,5,39,64,185,24,166,59,219,4,205,
  30,62,3,6,229,48,20,139,208,216,3,32,
  207,93,31,173,152,232,89,240,118,74,152,64,
  151,40,173,8,208,222,6,213,173,16,209,89,
  81,15,95,112,98,203,98,3,220,216,189,244,
  193,118,245,109,38,191,62,15,254,216,103,214,
  111,164,117,157,168,220,246,89,164,12,94,91,
  162,182,104,197,244,140,118,108,218,169,224,241,
  74,221,173,159,80,179,72,156,255,101,211,51,
  203,171,160,118,13,86,247,185,239,197,236,64,
  88,55,220,39,185,48,94,254,88,182,239,190,
  36,211,62,14,5,21,15,70,21,111,209,235,
  184,242,181,176,89,26,200,216,120,80,52,237,
  184,150,48,233,24,168,231,230,39,223,20,22,
  228,62,97,96,47,171,12,53,203,141,239,181,
  71,49,176,247,45,24,124,201,185,131,152,12,
  232,18,211,80,224,87,193,50,243,226,231,45,
  205,143,184,154,253,224,54,59,245,167,89,226,
  220,74,4,151,216,97,190,47,98,65,207,249,
  223,4,107,237,105,24,205,17,25,249,88,87,
  49,85,79,0,170,243,56,228,35,13,52,160,
  49,182,199,231,82,16,101,58,30,33,39,235,
  179,52,142,216,189,65,5,95,66,233,149,189,
  251,199,149,20,165,246,244,11,69,22,53,215,
  107,25,236,36,84,211,33,149,236,231,32,72,
  210,153,152,177,7,213,97,247,204,12,196,3,
  4,236,190,190,15,227,243,220,12,53,65,39,
  198,112,191,176,180,225,219,230,178,186,167,198,
  249,208,54,205,227,185,23,163,58,213,81,167,
  203,57,52,58,170,170,28,91,21,79,222,40,
  60,69,51,242,36,80,8,223,22,207,223,193,
  51,255,74,188,33,101,110,199,49,223,91,19,
  108,174,94,162,250,196,30,166,34,159,252,168,
  52,110,165,193,231,27,251,0,90,165,230,177,
  28,113,203,57,218,236,207,70,223,47,28,208,
  81,82,208,231,38,162,152,65,75,228,200,88,
  151,82,215,61,16,79,238,2,252,210,234,208,
  137,96,204,130,195,51,142,63,211,31,201,27,
  61,5,190,185,171,162,36,144,62,252,243,61,
  64,194,20,51,22,213,62,17,57,185,18,49,
  201,23,58,49,179,38,19,39,239,58,55,191,
  42,156,204,178,160,229,38,156,243,55,58,214,
  176,193,55,135,183,27,186,210,207,205,213,189,
  157,187,253,160,5,100,214,123,100,223,248,65,
  236,71,250,250,240,200,233,51,23,147,84,70,
  46,92,70,59,201,21,189,31,205,216,48,245,
  62,254,200,241,21,98,239,199,106,222,81,123,
  43,44,92,92,142,213,5,40,254,210,215,19,
  222,31,108,206,94,0,232,154,23,90,189,57,
  212,59,12,224,217,5,127,148,108,105,90,236,
  7,202,163,63,249,190,176,198,197,201,81,79,
  169,168,92,69,6,21,206,170,203,96,13,169,
  54,170,166,26,159,234,109,1,26,205,224,172,
  75,93,184,62,155,234,236,20,27,61,245,211,
  40,199,181,189,92,28,5,224,104,196,212,113,
  10,249,17,61,226,103,224,173,246,197,234,228,
  234,47,208,227,227,3,117,203,249,206,63,37,
  173,31,213,90,15,229,209,83,92,202,32,195,
  175,198,253,4,188,174,235,204,72,27,86,68,
  14,188,66,55,92,172,16,222,29,245,173,150,
  165,83,103,88,40,216,203,223,183,119,67,169,
  71,1,27,226,158,59,3,203,51,30,84,201,
  180,31,164,60,255,62,114,220,82,102,170,72,
  54,223,77,23,241,77,222,225,7,7,234,28,
  32,18,168,143,235,160,109,186,220,226,148,37,
  29,53,52,189,165,145,110,2,75,12,40,217,
  57,1,187,158,228,247,194,208,13,132,240,75,
  36,194,220,141,158,207,48,188,3,27,154,37,
  189,168,7,7,214,164,170,89,81,213,233,46,
  248,148,246,25,230,98,175,225,119,166,251,78,
  105,32,190,129,169,41,162,203,57,58,44,224,
  91,43,157,41,183,56,166,23,204,48,219,236,
  75,206,64,161,113,165,201,1,15,185,192,95,
  53,3,157,79,0,171,186,74,182,86,192,95,
  103,123,135,65,230,174,166,217,36,170,115,173,
  108,5,14,255,238,248,79,55,93,60,4,183,
  59,231,29,27,108,252,169,183,29,131,41,114,
  8,205,232,56,205,86,102,71,172,206,93,243,
  5,9,249,221,220,227,36,19,54,162,229,32,
  167,101,37,80,204,110,21,166,25,33,249,108,
  19,8,70,208,159,15,186,220,236,185,177,105,
  192,198,7,27,224,251,56,225,202,182,242,68,
  225,234,0,52,109,152,51,63,39,187,90,177,
  168,174,63,255,27,218,30,92,184,239,32,204,
  45,68,78,85,94,103,45,9,86,56,73,110,
  227,11,186,167,97,229,156,200,109,138,175,28,
  90,95,250,199,193,241,249,201,41,10,173,173,
  15,99,246,201,199,70,95,240,205,7,174,187,
  56,24,76,99,193,99,0,12,50,104,2,67,
  77,42,22,181,157,40,203,157,193,239,209,202,
  196,160,27,249,231,35,181,158,250,201,172,195,
  219,175,236,172,238,16,94,59,63,83,176,205,
  161,38,206,45,235,192,61,253,4,218,186,206,
  176,41,218,167,89,176,31,162,72,95,73,204,
  32,158,29,60,185,111,146,48,73,4,222,113,
  240,9,91,62,55,247,235,174,26,242,82,77,
  54,251,148,23,63,185,27,223,221,232,200,218,
  238,58,159,178,202,90,144,129,92,43,53,156,
  20,5,58,63,38,83,206,162,48,86,96,31,
  254,135,57,190,104,165,163,193,212,0,200,37,
  172,60,153,17,59,212,57,73,78,109,103,248,
  243,8,209,215,90,196,148,193,196,41,233,155,
  5,215,201,4,176,196,217,66,228,50,27,47,
  5,35,218,214,14,182,225,180,50,33,98,12,
  232,213,35,37,199,222,35,32,54,109,243,8,
  202,96,21,4,80,131,245,238,193,47,104,16,
  220,100,12,89,113,166,99,57,42,88,204,242,
  20,206,92,34,41,186,63,66,81,209,18,79,
  164,102,107,96,28,193,104,202,0,34,247,86,
  162,206,72,187,100,215,249,235,111,48,101,179,
  185,142,220,16,33,7,93,92,31,238,247,84,
  49,158,248,243,90,25,211,80,191,173,224,197,
  81,241,67,243,199,31,27,219,10,220,34,171,
  100,89,174,142,58,20,185,97,193,241,69,215,
  167,70,68,252,177,176,83,191,46,246,190,88,
  86,41,141,51,202,117,204,156,41,11,218,217,
  181,208,241,88,159,43,95,4,255,26,74,8,
  218,212,204,39,226,236,198,214,159,10,14,232,
  235,83,221,187,19,70,37,85,21,218,209,227,
  18,200,110,252,218,60,243,181,107,165,180,62,
  170,177,89,161,18,255,255,255,4,0,0,0,
  128,0,0,0,0,0,0,0,254,255,255,255,
  255,255,255,255,254,255,255,255,2,0,0,0,
  0,0,0,0,2,0,0,0,253,255,255,255,
  2,0,0,0,255,255,255,255,2,0,0,0,
  254,255,255,255,1,0,0,0,253,255,255,255,
  253,255,255,255,253,255,255,255,255,255,255,255,
  254,255,255,255,0,0,0,0,254,255,255,255,
  0,0,0,0,0,0,0,0,2,0,0,0,
  253,255,255,255,254,255,255,255,254,255,255,255,
  1,0,0,0,2,0,0,0,2,0,0,0,
  254,255,255,255,253,255,255,255,1,0,0,0,
  158,255,255,255,4,0,0,0,64,0,0,0,
  144,180,164,211,165,169,94,255,123,179,127,158,
  230,219,144,54,187,173,32,149,232,8,12,227,
  143,190,158,184,75,230,159,211,134,65,142,22,
  129,71,25,116,7,7,4,200,152,5,89,67,
  238,107,153,2,17,232,144,10,207,105,30,18,
  42,65,184,40,234,255,255,255,4,0,0,0,
  8,0,0,0,1,0,0,0,255,255,255,255,
  0,0,6,0,8,0,4,0,6,0,0,0,
  4,0,0,0,8,0,0,0,255,255,255,255,
  88,2,0,0,84,248,255,255,88,248,255,255,
  15,0,0,0,77,76,73,82,32,67,111,110,
  118,101,114,116,101,100,46,0,1,0,0,0,
  20,0,0,0,0,0,14,0,24,0,20,0,
  16,0,12,0,8,0,4,0,14,0,0,0,
  20,0,0,0,28,0,0,0,216,0,0,0,
  220,0,0,0,224,0,0,0,4,0,0,0,
  109,97,105,110,0,0,0,0,3,0,0,0,
  156,0,0,0,76,0,0,0,4,0,0,0,
  202,255,255,255,20,0,0,0,0,0,0,8,
  16,0,0,0,20,0,0,0,1,0,0,0,
  212,248,255,255,1,0,0,0,8,0,0,0,
  3,0,0,0,7,0,0,0,3,0,0,0,
  2,0,0,0,0,0,14,0,26,0,20,0,
  16,0,12,0,11,0,4,0,14,0,0,0,
  28,0,0,0,0,0,0,8,28,0,0,0,
  32,0,0,0,1,0,0,0,0,0,6,0,
  8,0,7,0,6,0,0,0,0,0,0,1,
  1,0,0,0,7,0,0,0,3,0,0,0,
  6,0,0,0,5,0,0,0,4,0,0,0,
  0,0,10,0,12,0,0,0,8,0,4,0,
  10,0,0,0,8,0,0,0,12,0,0,0,
  1,0,0,0,6,0,0,0,2,0,0,0,
  0,0,0,0,1,0,0,0,1,0,0,0,
  8,0,0,0,1,0,0,0,0,0,0,0,
  9,0,0,0,188,6,0,0,96,6,0,0,
  220,5,0,0,104,5,0,0,148,3,0,0,
  184,1,0,0,52,1,0,0,128,0,0,0,
  4,0,0,0,126,249,255,255,0,0,0,1,
  24,0,0,0,32,0,0,0,60,0,0,0,
  9,0,0,0,0,0,0,9,80,0,0,0,
  2,0,0,0,255,255,255,255,2,0,0,0,
  100,249,255,255,8,0,0,0,16,0,0,0,
  1,0,0,0,17,0,0,0,0,0,0,0,
  1,0,0,0,49,23,8,64,27,0,0,0,
  83,116,97,116,101,102,117,108,80,97,114,116,
  105,116,105,111,110,101,100,67,97,108,108,95,
  49,58,48,0,2,0,0,0,1,0,0,0,
  2,0,0,0,246,249,255,255,0,0,0,1,
  24,0,0,0,32,0,0,0,60,0,0,0,
  8,0,0,0,0,0,0,9,136,0,0,0,
  2,0,0,0,255,255,255,255,32,0,0,0,
  220,249,255,255,8,0,0,0,16,0,0,0,
  1,0,0,0,128,255,255,255,255,255,255,255,
  1,0,0,0,82,149,223,63,82,0,0,0,
  102,117,110,99,116,105,111,110,97,108,95,49,
  47,100,101,110,115,101,95,49,47,77,97,116,
  77,117,108,59,102,117,110,99,116,105,111,110,
  97,108,95,49,47,100,101,110,115,101,95,49,
  47,82,101,108,117,59,102,117,110,99,116,105,
  111,110,97,108,95,49,47,100,101,110,115,101,
  95,49,47,66,105,97,115,65,100,100,0,0,
  2,0,0,0,1,0,0,0,32,0,0,0,
  166,250,255,255,0,0,0,1,24,0,0,0,
  32,0,0,0,64,0,0,0,7,0,0,0,
  0,0,0,9,88,0,0,0,2,0,0,0,
  255,255,255,255,88,2,0,0,140,250,255,255,
  8,0,0,0,20,0,0,0,1,0,0,0,
  238,255,255,255,255,255,255,255,0,0,0,0,
  1,0,0,0,204,203,151,64,30,0,0,0,
  102,117,110,99,116,105,111,110,97,108,95,49,
  47,114,101,115,104,97,112,101,95,49,47,82,
  101,115,104,97,112,101,0,0,2,0,0,0,
  1,0,0,0,88,2,0,0,126,251,255,255,
  0,0,0,1,20,0,0,0,168,1,0,0,
  6,0,0,0,0,0,0,9,180,1,0,0,
  252,250,255,255,8,0,0,0,12,1,0,0,
  32,0,0,0,0,0,0,0,0,0,0,0,
  0,0,0,0,0,0,0,0,0,0,0,0,
  0,0,0,0,0,0,0,0,0,0,0,0,
  0,0,0,0,0,0,0,0,0,0,0,0,
  0,0,0,0,0,0,0,0,0,0,0,0,
  0,0,0,0,0,0,0,0,0,0,0,0,
  0,0,0,0,0,0,0,0,0,0,0,0,
  0,0,0,0,0,0,0,0,0,0,0,0,
  0,0,0,0,0,0,0,0,0,0,0,0,
  0,0,0,0,0,0,0,0,0,0,0,0,
  0,0,0,0,0,0,0,0,0,0,0,0,
  0,0,0,0,0,0,0,0,0,0,0,0,
  0,0,0,0,0,0,0,0,0,0,0,0,
  0,0,0,0,0,0,0,0,0,0,0,0,
  0,0,0,0,0,0,0,0,0,0,0,0,
  0,0,0,0,0,0,0,0,0,0,0,0,
  0,0,0,0,0,0,0,0,0,0,0,0,
  0,0,0,0,0,0,0,0,0,0,0,0,
  0,0,0,0,0,0,0,0,0,0,0,0,
  0,0,0,0,0,0,0,0,0,0,0,0,
  0,0,0,0,0,0,0,0,0,0,0,0,
  0,0,0,0,0,0,0,0,0,0,0,0,
  32,0,0,0,130,129,114,58,173,192,119,58,
  39,108,110,58,181,104,103,58,197,86,104,58,
  246,211,187,57,102,135,116,58,236,25,104,58,
  99,200,112,58,209,223,107,58,94,230,121,58,
  57,74,100,58,5,236,114,58,36,162,94,58,
  227,19,108,58,144,233,96,58,101,217,98,58,
  18,60,114,58,235,88,105,58,88,116,113,58,
  168,247,114,58,240,63,108,58,237,191,108,58,
  15,58,101,58,214,1,112,58,13,5,97,58,
  40,219,92,58,165,141,94,58,148,53,101,58,
  201,152,99,58,134,101,107,58,171,56,106,58,
  18,0,0,0,116,102,108,46,112,115,101,117,
  100,111,95,113,99,111,110,115,116,51,0,0,
  2,0,0,0,32,0,0,0,88,2,0,0,
  86,253,255,255,0,0,0,1,20,0,0,0,
  164,1,0,0,5,0,0,0,0,0,0,2,
  176,1,0,0,212,252,255,255,8,0,0,0,
  8,1,0,0,32,0,0,0,0,0,0,0,
  0,0,0,0,0,0,0,0,0,0,0,0,
  0,0,0,0,0,0,0,0,0,0,0,0,
  0,0,0,0,0,0,0,0,0,0,0,0,
  0,0,0,0,0,0,0,0,0,0,0,0,
  0,0,0,0,0,0,0,0,0,0,0,0,
  0,0,0,0,0,0,0,0,0,0,0,0,
  0,0,0,0,0,0,0,0,0,0,0,0,
  0,0,0,0,0,0,0,0,0,0,0,0,
  0,0,0,0,0,0,0,0,0,0,0,0,
  0,0,0,0,0,0,0,0,0,0,0,0,
  0,0,0,0,0,0,0,0,0,0,0,0,
  0,0,0,0,0,0,0,0,0,0,0,0,
  0,0,0,0,0,0,0,0,0,0,0,0,
  0,0,0,0,0,0,0,0,0,0,0,0,
  0,0,0,0,0,0,0,0,0,0,0,0,
  0,0,0,0,0,0,0,0,0,0,0,0,
  0,0,0,0,0,0,0,0,0,0,0,0,
  0,0,0,0,0,0,0,0,0,0,0,0,
  0,0,0,0,0,0,0,0,0,0,0,0,
  0,0,0,0,0,0,0,0,0,0,0,0,
  0,0,0,0,0,0,0,0,0,0,0,0,
  32,0,0,0,114,203,143,59,225,231,146,59,
  153,95,141,59,251,54,137,59,36,196,137,59,
  26,191,222,58,135,254,144,59,16,160,137,59,
  225,197,142,59,203,220,139,59,210,45,148,59,
  132,93,135,59,154,10,144,59,223,2,132,59,
  171,251,139,59,208,92,133,59,210,130,134,59,
  69,162,143,59,54,93,138,59,216,43,143,59,
  128,17,144,59,202,21,140,59,174,97,140,59,
  187,235,135,59,38,80,142,59,29,109,133,59,
  22,245,130,59,184,246,131,59,18,233,135,59,
  78,244,134,59,71,148,139,59,226,225,138,59,
  18,0,0,0,116,102,108,46,112,115,101,117,
  100,111,95,113,99,111,110,115,116,50,0,0,
  1,0,0,0,32,0,0,0,38,255,255,255,
  0,0,0,1,20,0,0,0,64,0,0,0,
  4,0,0,0,0,0,0,9,76,0,0,0,
  164,254,255,255,8,0,0,0,28,0,0,0,
  2,0,0,0,0,0,0,0,0,0,0,0,
  0,0,0,0,0,0,0,0,0,0,0,0,
  2,0,0,0,121,146,88,59,14,232,93,59,
  18,0,0,0,116,102,108,46,112,115,101,117,
  100,111,95,113,99,111,110,115,116,49,0,0,
  2,0,0,0,2,0,0,0,32,0,0,0,
  150,255,255,255,0,0,0,1,20,0,0,0,
  60,0,0,0,3,0,0,0,0,0,0,2,
  72,0,0,0,20,255,255,255,8,0,0,0,
  24,0,0,0,2,0,0,0,0,0,0,0,
  0,0,0,0,0,0,0,0,0,0,0,0,
  2,0,0,0,234,37,189,59,147,206,193,59,
  17,0,0,0,116,102,108,46,112,115,101,117,
  100,111,95,113,99,111,110,115,116,0,0,0,
  1,0,0,0,2,0,0,0,0,0,22,0,
  28,0,24,0,23,0,16,0,12,0,8,0,
  0,0,0,0,0,0,7,0,22,0,0,0,
  0,0,0,1,24,0,0,0,24,0,0,0,
  2,0,0,0,0,0,0,2,32,0,0,0,
  4,0,4,0,4,0,0,0,14,0,0,0,
  97,114,105,116,104,46,99,111,110,115,116,97,
  110,116,0,0,1,0,0,0,2,0,0,0,
  0,0,22,0,32,0,28,0,27,0,20,0,
  16,0,12,0,0,0,0,0,8,0,7,0,
  22,0,0,0,0,0,0,1,24,0,0,0,
  48,0,0,0,76,0,0,0,1,0,0,0,
  0,0,0,9,96,0,0,0,3,0,0,0,
  255,255,255,255,100,0,0,0,6,0,0,0,
  12,0,12,0,0,0,0,0,8,0,4,0,
  12,0,0,0,8,0,0,0,16,0,0,0,
  1,0,0,0,238,255,255,255,255,255,255,255,
  1,0,0,0,204,203,151,64,24,0,0,0,
  115,101,114,118,105,110,103,95,100,101,102,97,
  117,108,116,95,119,105,110,100,111,119,58,48,
  0,0,0,0,3,0,0,0,1,0,0,0,
  100,0,0,0,6,0,0,0,2,0,0,0,
  48,0,0,0,16,0,0,0,12,0,16,0,
  15,0,0,0,8,0,4,0,12,0,0,0,
  9,0,0,0,4,0,0,0,0,0,0,9,
  12,0,12,0,11,0,0,0,0,0,4,0,
  12,0,0,0,22,0,0,0,0,0,0,22
  
};
const unsigned int g_gesture_model_data_len = 22176;
