#include <cstddef>
extern const unsigned char g_gesture_model_data[] = {
  28,0,0,0,84,70,76,51,20,0,32,0,
  28,0,24,0,20,0,16,0,12,0,0,0,
  8,0,4,0,20,0,0,0,28,0,0,0,
  132,0,0,0,220,0,0,0,248,77,0,0,
  8,78,0,0,136,89,0,0,3,0,0,0,
  1,0,0,0,4,0,0,0,18,177,255,255,
  12,0,0,0,28,0,0,0,60,0,0,0,
  15,0,0,0,115,101,114,118,105,110,103,95,
  100,101,102,97,117,108,116,0,1,0,0,0,
  4,0,0,0,152,255,255,255,14,0,0,0,
  4,0,0,0,8,0,0,0,111,117,116,112,
  117,116,95,48,0,0,0,0,1,0,0,0,
  4,0,0,0,26,177,255,255,4,0,0,0,
  6,0,0,0,119,105,110,100,111,119,0,0,
  2,0,0,0,52,0,0,0,4,0,0,0,
  220,255,255,255,17,0,0,0,4,0,0,0,
  19,0,0,0,67,79,78,86,69,82,83,73,
  79,78,95,77,69,84,65,68,65,84,65,0,
  8,0,12,0,8,0,4,0,8,0,0,0,
  16,0,0,0,4,0,0,0,19,0,0,0,
  109,105,110,95,114,117,110,116,105,109,101,95,
  118,101,114,115,105,111,110,0,18,0,0,0,
  24,77,0,0,16,77,0,0,252,76,0,0,
  232,76,0,0,212,76,0,0,188,76,0,0,
  108,76,0,0,220,75,0,0,204,0,0,0,
  196,0,0,0,188,0,0,0,180,0,0,0,
  172,0,0,0,164,0,0,0,156,0,0,0,
  148,0,0,0,116,0,0,0,4,0,0,0,
  214,177,255,255,4,0,0,0,96,0,0,0,
  12,0,0,0,8,0,14,0,8,0,4,0,
  8,0,0,0,16,0,0,0,40,0,0,0,
  0,0,6,0,8,0,4,0,6,0,0,0,
  4,0,0,0,1,0,0,0,235,3,0,0,
  12,0,24,0,20,0,16,0,12,0,4,0,
  12,0,0,0,70,183,101,136,23,42,89,235,
  2,0,0,0,2,0,0,0,4,0,0,0,
  6,0,0,0,50,46,50,48,46,48,0,0,
  66,178,255,255,4,0,0,0,16,0,0,0,
  49,46,49,52,46,48,0,0,0,0,0,0,
  0,0,0,0,232,168,255,255,236,168,255,255,
  240,168,255,255,244,168,255,255,248,168,255,255,
  252,168,255,255,0,169,255,255,122,178,255,255,
  4,0,0,0,0,75,0,0,75,54,188,237,
  13,199,21,89,227,224,22,40,13,173,71,254,
  196,112,99,51,55,87,29,181,69,89,12,13,
  187,241,94,237,165,218,243,25,77,89,219,238,
  148,206,164,209,170,152,152,77,205,77,44,42,
  40,111,18,85,84,27,70,83,191,227,50,111,
  196,227,86,202,209,25,155,183,99,99,63,215,
  183,74,134,232,83,72,4,208,226,94,167,81,
  189,252,170,31,60,78,190,2,37,75,90,57,
  29,5,132,221,70,97,28,84,191,29,192,170,
  210,225,86,182,91,168,82,217,226,160,194,49,
  248,4,148,208,49,82,38,179,174,244,15,159,
  154,92,244,114,175,55,81,179,54,4,181,237,
  29,149,208,24,115,179,133,101,170,2,154,217,
  47,167,9,12,40,221,163,243,247,100,180,195,
  34,200,231,165,213,238,57,72,234,246,112,166,
  73,121,210,5,242,69,164,106,146,175,29,42,
  252,50,201,1,12,25,90,39,165,20,92,12,
  189,0,19,5,25,225,230,83,150,73,80,65,
  228,151,225,73,242,62,85,180,42,201,154,53,
  20,26,187,68,100,74,74,178,199,102,51,42,
  210,100,248,14,215,3,39,244,159,28,169,160,
  251,162,30,197,254,156,175,182,42,2,162,39,
  109,181,133,254,188,76,168,92,41,195,29,210,
  62,0,33,30,252,194,153,13,247,213,220,176,
  199,169,79,95,191,12,28,158,79,21,36,94,
  239,223,159,71,91,153,14,202,160,251,53,245,
  28,243,76,121,28,219,247,244,130,62,238,230,
  63,102,88,162,210,60,66,38,61,38,220,211,
  225,60,232,33,100,132,109,206,73,114,236,60,
  169,112,71,203,118,80,13,117,186,194,201,201,
  117,182,57,16,59,2,67,102,47,194,110,7,
  231,238,199,4,255,246,103,105,79,220,161,189,
  226,173,50,178,196,5,187,90,157,249,20,165,
  91,0,221,233,66,117,191,135,68,233,124,106,
  168,86,206,78,173,94,254,64,249,226,238,110,
  191,240,151,37,231,239,192,179,147,190,196,48,
  180,185,48,174,237,71,243,158,217,41,173,103,
  227,202,62,192,74,187,147,224,87,45,48,30,
  245,1,0,49,81,181,163,179,139,64,180,196,
  29,58,81,220,81,48,241,155,129,0,221,113,
  54,249,53,94,182,171,201,99,146,68,201,7,
  4,202,235,7,246,165,43,99,22,230,65,181,
  88,159,93,17,106,232,172,228,147,164,186,63,
  222,100,65,125,19,82,151,61,221,209,69,67,
  38,180,19,237,77,146,83,109,29,9,113,225,
  169,33,194,27,47,247,185,31,54,173,176,49,
  60,91,192,84,56,85,159,46,10,21,95,53,
  240,56,146,104,22,56,172,241,210,13,69,135,
  244,254,89,71,253,4,171,84,131,72,86,81,
  14,95,132,255,220,244,56,24,201,96,217,188,
  214,205,159,78,16,64,218,29,194,136,29,183,
  23,47,237,169,228,3,108,192,218,231,208,227,
  112,27,80,158,223,213,251,209,197,149,2,167,
  161,6,222,56,91,0,29,218,192,193,9,86,
  162,149,242,108,81,232,49,16,182,86,153,36,
  69,219,229,90,244,223,102,126,205,68,172,91,
  103,212,228,129,211,62,173,6,75,207,11,75,
  28,195,213,172,9,202,19,215,6,80,94,53,
  29,67,203,9,145,83,224,16,21,195,215,152,
  58,176,49,83,58,249,35,38,231,242,215,180,
  233,165,9,153,102,150,204,194,79,86,184,11,
  13,56,118,81,210,217,244,100,122,186,95,231,
  220,63,175,3,181,148,233,54,16,94,9,153,
  142,158,83,175,11,206,148,77,109,184,51,31,
  133,147,120,45,81,170,8,147,123,210,57,46,
  210,63,218,202,46,79,64,44,120,209,61,247,
  35,65,61,140,48,11,183,218,81,3,192,174,
  108,36,210,78,204,11,178,211,156,190,195,178,
  80,144,35,223,9,34,50,144,183,201,191,52,
  195,66,110,158,151,155,102,159,104,51,84,35,
  179,130,245,189,166,85,180,0,180,77,135,166,
  19,31,171,151,167,206,221,112,34,23,205,118,
  124,82,215,246,81,61,65,53,96,23,184,224,
  96,91,216,54,26,174,37,6,223,231,185,238,
  85,9,214,26,9,83,73,196,244,33,242,25,
  160,18,171,80,11,104,81,67,254,24,193,31,
  92,5,1,60,223,1,175,149,222,201,16,89,
  54,152,229,150,49,183,12,17,99,9,198,254,
  253,59,32,240,225,73,48,9,20,34,195,52,
  89,164,115,108,168,241,226,232,6,21,43,211,
  239,44,79,166,46,238,161,243,187,55,247,215,
  237,203,124,47,201,80,205,4,157,212,180,222,
  157,64,230,31,36,19,71,119,114,167,73,48,
  186,253,96,98,70,51,68,152,70,222,253,57,
  103,233,123,42,48,40,97,252,31,34,35,188,
  164,254,94,97,235,238,93,251,220,192,154,63,
  27,34,100,193,195,89,202,191,240,164,55,21,
  96,221,163,48,78,27,165,170,227,245,248,52,
  207,215,188,30,7,152,64,26,1,186,162,117,
  202,98,235,201,219,116,47,85,85,56,26,176,
  245,162,109,237,31,47,251,19,77,71,146,9,
  12,40,175,222,71,21,13,36,224,151,8,251,
  143,215,68,83,91,117,152,207,39,182,235,16,
  84,100,166,24,232,117,156,48,232,129,202,201,
  85,63,26,214,7,16,254,102,14,19,205,148,
  132,176,192,20,33,12,50,72,204,86,209,175,
  182,19,120,155,231,217,92,81,53,171,47,67,
  45,196,119,230,5,55,164,196,251,15,189,209,
  112,52,115,206,72,74,50,15,216,242,168,78,
  4,107,18,136,158,35,2,174,164,247,191,24,
  1,180,74,58,253,162,160,175,140,188,190,107,
  23,4,255,82,43,167,194,32,59,9,35,159,
  50,236,223,99,81,8,241,85,75,176,147,60,
  229,205,225,180,47,212,31,59,9,203,2,23,
  72,88,23,37,211,55,208,92,172,83,183,28,
  47,215,147,107,13,161,203,150,2,200,134,93,
  182,78,133,19,84,201,18,100,17,180,34,49,
  90,232,200,83,218,102,88,70,69,92,187,196,
  189,18,208,249,139,178,249,175,135,1,91,111,
  185,211,98,118,183,107,47,145,137,216,195,87,
  168,13,78,77,80,42,115,235,160,237,184,118,
  212,135,178,193,59,117,74,167,41,119,177,20,
  167,144,58,112,192,49,82,21,77,86,64,162,
  54,207,96,91,112,232,13,192,169,13,173,211,
  210,202,73,232,68,3,206,210,66,81,73,211,
  88,93,42,252,173,169,63,187,140,180,14,137,
  220,183,190,252,218,179,5,211,247,183,210,252,
  27,211,9,225,177,245,7,18,84,252,155,150,
  198,47,87,85,216,76,210,32,4,202,247,175,
  174,240,43,55,16,202,24,181,178,117,175,160,
  75,228,34,200,94,197,234,154,1,22,149,85,
  111,13,34,248,242,81,225,41,174,86,181,194,
  144,32,50,190,19,91,244,84,196,24,246,95,
  65,161,235,198,150,163,190,6,71,111,215,53,
  203,190,24,45,36,229,30,4,216,164,147,180,
  12,167,209,1,207,226,70,151,164,24,106,155,
  219,13,250,100,10,91,168,113,194,59,150,35,
  0,162,155,231,40,0,231,99,87,24,179,76,
  22,94,60,171,218,255,1,103,62,178,108,41,
  11,40,220,242,174,0,80,208,85,54,81,103,
  50,0,91,118,22,53,195,201,235,127,75,245,
  14,197,190,50,51,59,220,213,29,11,237,228,
  138,25,44,61,212,56,206,150,237,230,93,163,
  17,41,150,87,187,68,193,64,39,91,77,248,
  25,15,14,124,181,48,173,199,58,60,190,211,
  74,234,198,23,32,240,15,217,54,25,72,183,
  231,135,162,165,38,182,168,145,28,62,47,194,
  90,27,139,105,186,0,205,155,68,111,221,150,
  75,48,192,251,76,24,81,45,232,30,90,167,
  211,65,179,47,168,67,218,93,143,93,31,166,
  79,39,25,53,48,60,102,11,55,121,242,154,
  254,210,65,211,229,46,200,4,47,175,25,21,
  126,245,190,206,96,189,68,192,194,75,248,149,
  251,191,217,222,95,14,165,74,231,35,80,197,
  65,91,13,221,191,95,245,15,130,233,193,57,
  113,169,249,191,26,251,168,48,56,201,29,101,
  103,21,164,183,111,30,244,34,210,77,0,203,
  184,174,89,2,93,50,227,51,225,94,15,32,
  96,89,32,36,219,23,47,65,172,92,198,74,
  238,243,165,20,90,90,227,27,51,43,40,140,
  48,149,228,220,88,30,19,187,58,247,28,182,
  82,233,62,166,65,10,164,179,249,63,71,197,
  11,18,77,95,246,45,185,108,26,77,245,4,
  187,65,211,49,94,170,187,43,47,227,29,254,
  192,216,4,25,80,80,15,166,74,219,1,23,
  108,254,51,172,46,199,164,205,188,205,145,8,
  221,101,39,99,201,20,83,12,173,116,81,47,
  65,39,237,169,255,39,224,41,199,109,61,229,
  220,211,138,163,170,236,62,31,201,239,94,119,
  229,248,242,88,242,30,217,248,185,30,57,209,
  32,42,216,247,37,79,154,197,3,146,222,112,
  212,234,249,247,55,70,99,236,7,218,166,88,
  206,213,70,232,41,105,7,4,130,232,183,229,
  201,162,132,59,213,147,236,34,49,166,201,30,
  62,160,88,95,173,228,131,207,34,215,45,89,
  82,219,248,172,174,8,227,177,137,240,209,79,
  56,6,23,162,109,91,159,188,53,191,215,11,
  133,66,5,72,228,85,215,15,164,218,19,60,
  59,37,27,241,158,39,76,190,197,6,62,23,
  229,175,73,107,79,217,76,144,38,236,163,33,
  6,51,13,205,65,37,28,38,255,68,197,244,
  68,168,33,41,40,213,14,145,213,221,3,59,
  253,236,6,255,10,143,151,75,184,92,106,70,
  192,248,60,53,76,237,31,202,5,176,8,143,
  9,4,190,160,174,215,162,231,230,69,255,141,
  46,206,204,240,92,81,103,165,30,191,32,83,
  230,117,197,214,244,250,85,192,75,18,35,155,
  54,17,57,61,162,167,163,83,153,75,3,62,
  124,238,161,169,189,93,95,165,223,106,157,250,
  101,242,85,33,26,53,24,99,165,76,63,218,
  172,103,218,251,242,191,17,148,231,116,3,170,
  241,93,201,115,167,26,116,184,38,27,45,85,
  44,251,57,101,112,21,216,4,8,92,22,87,
  76,43,58,221,248,16,213,208,200,226,228,30,
  49,142,213,7,46,253,180,232,145,115,73,69,
  192,58,138,171,222,97,2,19,10,62,195,84,
  171,196,35,37,173,188,175,62,169,43,227,65,
  196,56,84,77,97,72,222,148,159,36,89,157,
  214,189,228,203,17,175,184,6,4,160,111,7,
  44,106,129,255,176,82,34,68,47,205,175,94,
  13,84,27,20,41,183,250,155,246,212,230,120,
  91,192,205,15,86,80,19,249,84,221,98,85,
  221,10,139,41,24,14,19,230,43,52,205,55,
  91,24,221,70,31,102,117,104,210,250,19,105,
  44,97,208,192,30,159,16,219,44,57,104,180,
  93,91,175,107,219,45,76,57,248,56,229,6,
  204,187,180,199,94,60,37,185,148,185,92,236,
  159,172,46,47,92,170,38,212,12,211,216,72,
  166,160,28,61,212,169,174,117,20,112,242,148,
  181,208,194,83,63,178,27,11,167,208,100,110,
  245,5,117,39,141,12,96,52,165,57,149,50,
  198,42,174,23,146,142,183,247,108,155,29,49,
  6,145,68,221,62,222,251,90,216,40,209,53,
  8,33,82,141,55,197,98,151,251,129,6,155,
  221,179,244,146,163,211,176,212,210,185,195,235,
  40,204,176,92,227,204,47,72,222,245,36,93,
  84,139,159,212,177,253,9,74,164,96,50,164,
  202,178,13,170,86,228,153,89,228,28,27,133,
  148,234,203,229,241,214,216,17,73,5,34,21,
  155,67,247,18,95,206,137,14,179,93,88,64,
  81,146,175,48,19,248,141,76,84,67,195,72,
  103,105,253,91,33,199,234,217,7,71,136,4,
  160,238,164,77,73,87,210,250,161,106,168,211,
  69,110,113,19,43,93,8,208,74,17,85,16,
  167,177,125,134,245,61,104,14,48,153,225,79,
  236,251,110,184,34,67,228,25,23,170,240,14,
  187,117,123,159,72,168,11,189,32,188,202,66,
  71,65,169,157,33,163,123,222,174,66,137,37,
  221,9,22,194,138,31,64,158,230,172,2,249,
  21,54,175,38,231,217,40,202,200,178,193,85,
  245,75,166,82,99,52,22,123,118,82,163,171,
  87,104,200,21,187,203,205,122,12,47,6,65,
  83,111,92,96,71,18,249,181,73,203,234,68,
  80,215,208,2,238,137,242,192,241,43,149,149,
  182,24,96,50,218,194,249,7,185,86,148,243,
  145,49,233,235,189,76,58,62,69,137,3,155,
  235,56,116,157,177,148,76,88,254,34,45,154,
  2,8,252,55,74,200,180,54,203,166,232,63,
  100,85,87,219,246,166,32,65,18,152,251,47,
  37,248,88,130,65,231,174,167,80,240,140,51,
  158,102,242,201,249,5,74,107,251,205,86,62,
  153,163,45,251,22,168,148,108,161,41,25,46,
  43,105,230,25,215,228,92,14,214,154,185,87,
  253,73,120,241,251,233,29,223,51,17,159,167,
  85,215,55,19,159,241,93,81,16,45,225,252,
  72,3,26,67,170,29,97,17,61,168,212,242,
  168,179,211,28,69,58,238,76,170,55,147,6,
  68,100,208,14,227,60,117,151,104,189,192,223,
  206,21,73,235,75,88,237,87,242,217,8,152,
  94,32,108,209,86,178,153,174,39,241,234,8,
  212,100,180,80,8,86,64,253,107,97,211,176,
  55,154,104,239,77,138,229,188,55,4,51,230,
  21,102,187,54,89,192,98,72,203,193,54,82,
  69,186,87,7,87,186,98,28,117,187,28,39,
  46,202,7,82,215,75,39,224,203,151,146,159,
  6,1,52,26,240,196,234,57,157,16,44,76,
  146,181,213,217,134,44,61,88,229,208,96,238,
  234,75,72,10,28,18,105,67,121,141,236,248,
  172,252,57,226,164,52,243,255,241,244,193,18,
  155,4,29,45,86,89,172,28,120,180,162,176,
  191,190,218,237,220,218,106,62,105,95,47,244,
  24,229,74,197,144,30,114,151,235,157,35,202,
  72,17,51,160,172,163,212,215,111,32,238,14,
  174,19,60,162,193,152,156,19,249,146,231,100,
  56,196,234,164,211,228,23,1,100,210,210,242,
  236,164,246,238,32,141,179,22,167,46,200,244,
  151,61,232,91,73,154,140,29,50,214,115,225,
  50,168,232,192,56,160,82,83,89,242,86,93,
  205,145,235,153,69,17,84,230,151,101,250,35,
  162,225,34,34,90,149,32,75,2,166,203,129,
  136,192,172,96,213,226,180,57,54,101,142,1,
  18,44,120,108,237,30,192,181,99,87,97,144,
  56,196,124,218,142,14,89,238,71,135,53,66,
  108,197,177,138,251,15,105,126,251,193,95,189,
  104,198,12,7,23,237,206,186,72,20,181,57,
  197,49,99,84,93,43,61,60,32,154,154,15,
  179,208,220,37,174,191,109,251,107,222,236,160,
  165,253,112,58,60,16,233,197,0,53,15,26,
  21,72,2,68,83,18,65,81,230,11,172,71,
  33,173,99,50,71,2,40,37,51,167,7,14,
  246,93,160,93,195,62,20,188,98,155,165,106,
  67,60,36,242,28,59,64,25,213,179,166,47,
  71,32,211,171,164,249,157,201,63,247,67,161,
  189,4,82,2,198,124,168,219,218,252,249,179,
  209,13,253,212,29,62,11,96,177,208,147,53,
  232,251,15,154,75,203,95,41,38,150,102,223,
  138,203,124,26,233,171,186,59,199,192,145,163,
  195,227,161,211,153,91,161,101,122,216,53,211,
  52,14,7,22,228,250,194,159,251,70,159,16,
  32,228,115,73,54,145,29,14,2,222,225,246,
  187,6,73,93,13,172,5,114,108,180,181,3,
  237,217,153,8,50,74,242,37,214,70,232,239,
  21,243,196,82,154,193,64,216,87,154,71,202,
  102,100,90,57,65,80,106,163,3,149,177,210,
  49,80,207,242,30,92,86,234,200,80,157,8,
  7,30,250,204,103,97,46,232,29,235,247,155,
  23,240,249,197,193,145,244,202,70,164,237,192,
  159,105,77,62,13,100,7,29,197,241,43,228,
  254,37,190,78,218,198,183,205,218,195,249,26,
  52,188,246,83,196,190,93,35,0,250,218,195,
  214,45,64,187,158,167,80,80,64,249,193,250,
  94,22,123,52,247,146,134,230,173,15,210,214,
  98,233,170,186,230,190,133,220,60,31,26,24,
  78,223,192,175,10,204,176,78,77,221,44,200,
  84,198,114,174,231,228,255,71,102,216,174,104,
  72,101,59,45,169,228,64,85,114,169,82,140,
  107,11,78,223,192,167,227,173,83,99,109,180,
  245,32,99,141,101,78,45,46,197,194,0,28,
  181,41,193,202,65,46,7,179,31,184,185,105,
  74,233,243,29,7,228,36,70,163,169,110,13,
  217,65,189,8,59,61,137,120,240,70,230,71,
  33,89,134,72,219,248,228,38,91,106,176,100,
  176,55,68,20,79,78,97,246,157,211,192,62,
  171,176,166,11,224,249,4,245,169,117,29,24,
  19,163,206,208,3,143,238,145,14,5,30,229,
  236,97,25,161,224,245,12,153,133,213,111,216,
  35,159,207,169,85,27,21,4,135,186,13,13,
  223,75,187,238,59,54,69,203,207,5,174,3,
  183,200,35,212,64,60,231,49,254,104,155,103,
  207,227,232,101,97,171,187,31,218,193,170,208,
  31,143,169,72,106,60,166,162,134,185,25,63,
  91,35,236,22,223,250,179,229,215,13,5,243,
  181,108,141,200,94,246,19,14,68,12,109,38,
  62,239,236,194,187,204,26,245,140,244,184,163,
  105,243,229,35,21,181,94,35,32,96,9,18,
  205,66,11,14,202,183,204,159,203,199,41,212,
  162,1,174,115,65,73,45,177,182,5,112,65,
  197,192,147,83,38,166,252,126,65,186,3,46,
  180,194,167,22,40,236,65,191,137,108,90,220,
  58,125,74,172,7,189,227,193,76,213,80,1,
  204,2,52,114,187,132,167,88,246,52,101,5,
  143,19,132,122,51,74,218,60,193,213,36,63,
  76,182,37,77,239,198,88,26,70,92,193,190,
  223,173,30,208,239,85,185,110,50,40,101,211,
  65,148,142,84,247,66,242,181,55,55,158,59,
  219,214,56,223,96,55,199,221,190,215,120,78,
  189,82,248,238,21,213,214,248,13,182,45,51,
  192,219,164,79,187,164,232,70,14,66,240,21,
  238,213,247,44,100,217,164,176,22,175,202,213,
  218,144,199,68,254,240,86,171,203,29,31,29,
  216,79,66,98,102,245,166,175,91,189,185,166,
  221,145,200,3,254,182,65,9,146,57,174,166,
  218,140,235,79,33,192,237,52,226,163,80,157,
  22,190,40,199,209,19,32,31,148,229,119,241,
  214,183,200,36,197,3,199,12,38,180,243,223,
  188,67,153,114,87,21,164,69,164,173,118,61,
  66,160,255,226,71,37,108,59,166,121,61,0,
  2,189,174,25,74,176,48,110,239,15,88,239,
  239,195,159,21,237,96,229,166,211,88,156,21,
  41,21,252,201,20,172,92,155,227,221,0,64,
  82,233,17,77,44,211,250,105,172,194,45,207,
  77,215,4,164,89,63,191,72,193,202,69,229,
  50,45,230,28,247,223,171,104,210,67,20,219,
  247,59,42,74,23,227,69,169,87,160,19,178,
  60,38,58,228,0,76,184,100,17,248,169,102,
  126,112,246,127,224,82,207,112,94,83,28,114,
  207,30,36,182,252,46,137,166,203,17,245,186,
  44,18,246,36,180,104,205,60,148,27,191,234,
  214,22,182,53,184,242,10,79,19,207,32,45,
  176,157,135,115,21,59,22,209,186,230,137,216,
  227,253,162,160,15,4,70,183,125,28,17,196,
  11,160,76,206,146,146,20,91,163,96,18,19,
  233,167,177,1,209,203,86,159,218,243,173,15,
  59,72,66,21,99,0,226,53,164,130,12,153,
  201,92,72,249,180,68,162,81,3,22,39,208,
  84,101,105,174,159,179,248,77,19,142,214,6,
  175,34,77,212,156,214,233,187,5,27,13,193,
  87,86,27,37,214,250,81,151,200,11,140,85,
  19,194,33,248,172,32,60,52,215,200,36,31,
  241,51,187,50,232,52,22,75,207,239,215,145,
  252,38,61,14,248,91,100,65,181,175,249,102,
  206,42,172,153,194,228,195,7,92,24,184,58,
  243,186,73,47,10,238,100,90,175,222,65,204,
  47,54,253,85,204,189,89,94,21,72,15,80,
  41,47,248,160,147,33,104,240,244,217,203,38,
  238,13,223,25,19,70,235,75,113,8,233,27,
  50,109,18,150,1,220,52,3,124,235,18,110,
  104,109,187,244,108,30,184,83,4,74,92,206,
  124,110,212,187,20,63,224,245,62,22,249,224,
  191,217,87,83,14,214,251,21,200,178,30,229,
  224,26,209,68,1,12,70,103,245,53,231,45,
  4,231,86,219,226,83,59,0,56,54,82,158,
  52,193,173,2,150,60,250,254,58,84,199,87,
  78,195,94,72,47,83,136,49,54,161,98,34,
  6,215,91,64,46,50,179,59,62,208,236,156,
  223,85,180,238,167,231,201,63,7,184,187,44,
  210,175,4,10,244,9,141,204,233,77,29,78,
  179,159,65,213,209,177,174,193,91,192,32,109,
  0,255,236,63,249,0,73,149,120,3,95,235,
  251,90,127,179,223,44,214,209,184,214,199,243,
  174,187,85,225,67,214,167,46,41,202,180,64,
  84,39,203,210,248,45,148,199,189,63,59,7,
  214,45,43,44,94,108,227,200,221,248,22,70,
  19,105,21,74,220,207,163,98,9,177,251,199,
  153,106,36,150,17,0,247,4,76,158,16,54,
  232,66,12,6,228,48,241,57,33,171,50,222,
  71,7,82,38,50,162,5,0,175,151,238,178,
  12,242,2,159,254,43,66,252,177,176,20,205,
  76,42,211,21,4,230,153,163,68,90,215,104,
  255,239,203,35,74,183,177,211,236,147,222,241,
  238,210,173,183,58,44,10,240,107,49,30,158,
  62,51,202,134,162,151,40,205,45,129,213,78,
  141,216,224,61,20,14,92,149,204,147,211,171,
  13,225,175,175,227,202,196,144,176,214,166,220,
  196,175,112,20,189,109,145,191,104,59,166,49,
  54,144,217,165,6,167,236,62,87,222,94,146,
  183,197,48,224,201,183,191,144,19,130,157,57,
  86,66,222,249,67,252,16,39,4,255,51,174,
  176,176,166,92,247,251,190,54,83,147,208,100,
  111,216,229,192,154,158,7,25,73,104,201,181,
  16,41,66,210,183,160,232,73,184,111,102,110,
  33,12,84,151,169,92,199,160,169,211,190,194,
  79,167,101,194,216,243,211,252,248,247,8,60,
  97,199,169,247,42,172,15,98,243,39,220,95,
  131,150,39,6,89,31,247,165,209,100,194,32,
  178,246,191,0,218,51,185,223,196,16,48,122,
  209,55,186,21,96,234,40,40,87,168,225,32,
  61,145,106,242,53,60,164,14,165,26,89,217,
  192,47,183,109,147,67,197,252,17,43,232,2,
  177,197,173,217,172,113,90,155,59,120,255,15,
  159,203,149,169,97,151,166,109,167,104,170,1,
  37,32,67,153,72,103,246,83,194,72,194,91,
  183,241,28,203,46,7,15,45,8,213,176,196,
  36,193,63,10,93,10,49,241,163,160,95,155,
  195,198,200,29,193,189,165,227,175,173,187,153,
  160,91,233,193,116,223,92,95,21,187,200,184,
  241,206,59,237,14,32,3,51,199,100,107,183,
  202,85,220,36,158,142,14,69,169,69,27,44,
  89,163,134,199,210,215,138,209,138,17,53,213,
  135,14,21,103,222,46,103,68,240,122,201,187,
  68,11,218,111,167,173,76,230,223,9,12,88,
  106,57,129,10,81,159,143,180,89,43,234,164,
  228,9,196,254,187,187,202,46,97,217,91,77,
  24,45,219,36,155,37,112,77,146,196,235,250,
  157,102,99,189,41,234,175,61,229,252,95,53,
  254,189,18,232,152,34,42,113,72,231,87,159,
  212,51,4,45,149,68,114,181,48,239,222,173,
  188,150,236,113,168,198,91,246,107,67,74,49,
  76,42,107,185,239,212,2,220,161,241,58,110,
  47,229,147,174,38,242,77,99,242,88,53,87,
  192,89,238,104,186,87,153,34,220,64,87,160,
  30,63,10,156,38,69,32,60,183,227,109,192,
  31,183,39,216,124,194,225,85,5,154,58,149,
  76,31,103,178,253,149,84,221,202,37,124,208,
  239,16,169,124,65,156,26,23,45,125,118,120,
  24,16,141,79,114,153,23,2,194,238,192,6,
  43,156,88,225,198,187,66,30,136,200,87,111,
  177,33,187,54,195,175,96,103,4,41,184,72,
  126,1,74,23,247,82,5,241,155,106,41,213,
  168,57,160,54,52,152,38,7,177,254,211,214,
  223,88,97,72,89,214,85,57,162,76,64,218,
  88,86,8,90,205,54,197,183,242,116,226,118,
  165,70,21,218,181,220,16,247,24,118,44,49,
  57,88,90,196,192,171,211,175,152,228,5,243,
  251,62,98,34,178,183,86,214,211,241,5,198,
  249,47,189,203,212,42,67,35,214,118,68,234,
  114,226,219,64,40,115,14,152,147,253,235,180,
  5,19,158,99,235,60,226,107,242,62,244,22,
  212,29,173,218,218,116,155,75,246,200,30,227,
  112,183,68,193,47,198,249,207,218,233,7,157,
  17,117,151,117,162,27,14,228,192,50,16,169,
  255,215,34,173,49,223,50,109,80,92,236,103,
  249,211,217,45,110,66,237,99,24,16,4,188,
  221,105,229,198,177,255,23,69,129,10,189,67,
  27,64,28,251,84,78,8,183,66,249,94,206,
  224,20,63,59,85,54,247,245,138,250,212,62,
  72,30,86,12,20,196,63,232,178,173,163,178,
  35,196,94,111,102,14,250,31,30,74,165,24,
  77,156,75,169,14,49,13,202,93,113,223,58,
  185,214,48,42,2,174,24,176,131,196,11,230,
  227,93,11,224,26,254,104,42,218,228,125,184,
  238,6,184,28,57,7,5,59,187,115,86,177,
  230,218,231,185,203,37,198,22,221,247,1,93,
  253,184,164,185,237,12,82,4,37,80,79,106,
  94,153,137,68,43,72,164,226,235,222,122,17,
  13,230,211,14,34,30,252,196,192,22,246,185,
  201,146,138,234,229,60,95,244,129,14,105,243,
  84,193,245,207,159,212,169,106,201,76,38,31,
  168,155,240,83,86,204,140,196,155,187,42,221,
  233,187,81,193,102,69,78,176,214,165,73,18,
  9,178,190,9,182,46,68,81,44,182,71,146,
  28,196,228,14,49,216,140,211,179,76,224,88,
  234,244,38,8,121,69,202,208,62,240,166,38,
  21,181,173,76,50,221,66,250,163,3,232,70,
  241,146,79,165,196,251,167,255,210,77,182,151,
  172,53,147,184,19,101,176,44,158,33,29,73,
  249,188,183,110,107,196,162,3,197,249,168,237,
  189,202,148,196,213,210,244,242,66,22,227,241,
  16,45,227,70,5,168,12,36,16,17,183,180,
  200,77,33,164,12,236,13,206,50,161,93,165,
  125,68,80,17,2,172,191,145,58,204,221,118,
  224,232,48,212,157,34,190,220,21,10,251,156,
  243,250,33,16,234,245,60,149,212,53,174,68,
  245,8,84,161,58,4,248,95,167,84,169,172,
  200,146,7,74,218,187,159,76,254,0,93,93,
  237,169,216,90,194,147,111,227,84,210,252,211,
  241,220,6,65,2,152,6,51,5,188,85,65,
  52,212,22,85,192,170,68,77,83,192,178,63,
  87,55,200,23,86,231,194,246,71,224,208,85,
  251,220,91,210,38,87,46,77,41,227,7,106,
  49,211,159,126,77,125,60,9,189,90,193,156,
  68,236,84,90,185,171,163,30,88,236,247,56,
  187,161,192,41,16,65,95,249,232,169,163,178,
  171,198,142,70,53,193,156,3,56,101,48,89,
  163,16,86,218,205,140,180,164,234,125,221,188,
  220,184,42,31,5,193,40,30,170,70,7,13,
  101,221,145,78,103,158,170,42,90,222,191,5,
  251,197,86,80,225,6,72,85,172,7,102,178,
  80,155,146,106,220,159,185,3,17,127,118,124,
  164,162,141,47,200,22,93,91,39,103,108,143,
  238,254,63,238,203,10,62,180,196,26,251,31,
  188,12,237,232,210,238,68,234,77,100,32,37,
  181,90,133,177,23,120,68,162,140,19,161,123,
  57,64,12,56,237,248,73,73,90,66,201,35,
  84,251,154,84,103,147,187,195,57,170,166,109,
  253,84,215,174,115,41,135,54,56,24,178,229,
  180,8,86,6,242,87,27,175,168,104,234,197,
  209,192,254,40,52,105,4,28,152,199,101,93,
  221,193,15,204,22,116,246,93,201,227,224,212,
  252,17,219,189,195,118,113,35,159,171,96,114,
  47,47,218,61,251,164,161,54,132,40,187,180,
  75,157,144,44,62,162,165,69,185,224,225,245,
  190,3,6,114,29,122,212,103,34,194,221,44,
  18,10,190,171,203,24,235,253,15,36,246,185,
  251,107,4,24,77,208,25,173,80,24,123,157,
  60,206,211,158,169,235,9,110,192,237,61,193,
  34,31,48,248,79,253,48,234,81,36,73,220,
  70,254,54,221,109,15,171,93,131,54,15,25,
  82,101,137,127,163,65,181,242,150,20,22,208,
  76,96,142,27,59,13,46,169,46,205,106,14,
  64,211,12,31,88,59,73,27,245,166,216,11,
  173,40,232,7,58,25,30,210,93,111,30,226,
  208,211,252,117,113,201,45,9,36,173,121,80,
  199,35,251,109,188,149,251,186,29,214,73,98,
  188,3,149,178,171,58,191,113,202,251,82,23,
  254,188,96,19,38,174,252,233,255,243,175,227,
  119,73,176,118,159,69,210,10,10,97,224,103,
  66,209,210,82,195,149,182,216,82,39,31,132,
  222,87,88,208,170,139,97,3,56,76,233,249,
  109,186,11,36,59,47,86,186,212,56,173,204,
  187,230,87,184,200,79,159,181,30,53,232,166,
  176,169,220,243,98,207,26,90,187,255,40,205,
  231,244,87,221,62,240,43,212,76,175,73,9,
  16,150,67,242,205,33,26,48,49,95,118,210,
  80,2,177,95,83,159,196,64,157,187,113,203,
  197,209,205,250,70,35,155,193,242,208,81,228,
  74,95,168,31,94,219,50,92,201,22,83,58,
  79,192,67,69,29,208,192,81,11,7,236,65,
  15,97,80,17,219,48,29,231,95,38,14,175,
  170,194,167,224,207,224,97,230,74,41,73,95,
  177,198,30,29,191,58,78,28,88,96,189,188,
  72,61,31,163,67,228,36,82,150,105,240,36,
  198,31,206,35,178,42,31,255,231,53,78,155,
  243,48,79,7,192,46,0,76,10,210,165,51,
  34,235,44,213,23,193,175,25,241,11,9,57,
  9,63,172,215,67,204,90,5,25,189,180,190,
  46,235,50,108,237,38,69,247,135,53,246,178,
  248,109,9,41,211,230,62,170,31,181,244,68,
  196,233,10,37,231,186,104,113,245,86,245,44,
  48,207,169,115,251,234,159,14,211,42,151,100,
  225,2,247,48,173,41,202,27,173,3,203,63,
  177,166,243,68,135,249,29,227,178,93,206,155,
  192,98,186,182,81,65,111,194,40,184,211,224,
  95,87,207,226,244,248,62,212,163,154,58,103,
  248,154,36,16,28,205,108,186,107,22,51,64,
  171,42,230,166,26,95,183,250,179,39,157,189,
  38,0,209,17,49,23,68,236,231,150,105,142,
  191,181,230,169,231,171,32,60,242,173,188,3,
  25,248,185,175,255,221,159,9,72,143,203,171,
  219,218,244,129,11,89,28,92,61,134,150,46,
  252,36,181,77,146,219,166,174,213,172,153,156,
  192,42,75,206,71,218,166,11,84,198,51,182,
  32,230,118,6,140,156,82,215,176,223,0,166,
  152,212,251,1,13,192,170,7,233,45,36,161,
  247,226,25,80,169,151,211,144,53,35,64,99,
  158,219,240,194,165,24,111,86,242,249,254,90,
  58,188,47,206,57,245,57,204,12,208,29,207,
  238,153,122,222,181,92,219,210,47,84,173,67,
  241,75,209,250,174,84,161,20,104,235,85,35,
  243,93,186,153,87,78,57,242,120,243,223,209,
  118,68,89,2,20,119,34,226,5,193,171,95,
  196,83,191,31,141,178,60,216,205,145,242,250,
  97,237,52,163,240,82,235,243,204,143,179,238,
  72,91,23,75,242,37,21,98,41,62,230,45,
  63,16,52,234,152,206,155,235,219,162,20,197,
  149,193,22,43,197,13,53,167,79,155,228,180,
  3,52,0,19,42,68,97,100,26,246,156,59,
  181,32,234,169,41,209,86,18,11,138,96,180,
  55,83,221,167,3,72,166,217,57,182,143,250,
  26,220,247,17,96,160,100,16,11,38,73,230,
  112,212,172,34,213,9,239,20,212,245,149,155,
  158,96,166,43,238,97,72,209,97,177,213,58,
  27,108,34,230,140,58,49,44,202,64,27,54,
  109,28,182,0,231,79,21,49,203,160,221,94,
  111,46,199,207,253,187,96,35,166,6,147,69,
  28,58,53,21,185,84,144,235,233,61,223,13,
  4,68,37,78,51,237,87,18,84,163,215,178,
  170,96,53,43,66,157,15,225,207,148,217,240,
  23,220,15,63,150,200,71,178,192,192,78,143,
  196,0,58,240,228,253,23,20,192,225,204,23,
  24,69,191,51,32,81,43,160,60,205,65,241,
  156,226,53,8,36,90,255,177,126,41,212,94,
  28,71,44,36,161,48,18,105,204,209,12,15,
  30,29,170,88,194,102,4,75,33,67,56,14,
  156,95,228,247,161,239,230,47,124,92,212,223,
  212,192,113,70,13,10,189,198,81,136,224,165,
  18,181,24,242,139,16,157,238,206,16,211,131,
  246,19,110,72,3,176,68,210,240,36,55,59,
  185,155,211,190,23,87,70,45,198,67,207,135,
  161,73,46,73,11,235,4,171,6,20,76,236,
  142,64,36,216,40,240,253,11,218,3,45,219,
  89,217,200,53,52,199,179,249,97,221,243,134,
  76,204,40,254,252,16,106,156,96,209,183,153,
  162,220,75,6,19,229,209,93,195,224,65,152,
  23,75,172,42,154,13,39,46,33,180,63,20,
  58,165,241,211,154,55,210,69,114,31,39,236,
  64,189,94,7,27,201,139,17,96,60,39,71,
  252,210,176,137,91,6,98,208,171,41,86,42,
  38,247,241,26,253,84,88,223,37,169,207,175,
  247,117,62,139,2,13,202,172,95,209,132,139,
  235,41,228,138,177,29,210,170,92,220,6,210,
  220,83,182,193,35,169,255,212,164,139,226,214,
  168,39,40,58,44,22,210,74,68,235,175,69,
  74,227,93,35,17,168,207,73,124,155,182,216,
  49,74,29,14,181,159,177,190,100,180,238,44,
  245,27,194,79,5,231,249,163,123,181,148,194,
  66,254,122,129,220,66,176,75,223,237,171,3,
  249,34,159,162,209,24,32,27,167,147,55,235,
  110,19,222,197,233,29,67,203,78,17,86,38,
  243,228,79,217,192,72,166,181,71,95,45,24,
  224,225,181,44,81,111,194,98,190,176,91,119,
  245,43,66,211,207,49,42,211,59,210,30,51,
  108,111,214,171,237,217,23,4,101,175,105,185,
  106,192,195,58,239,27,160,105,86,12,73,224,
  223,245,237,250,157,156,247,254,81,16,85,47,
  193,17,119,49,214,40,98,242,241,33,145,251,
  90,34,125,75,63,250,72,105,83,76,58,203,
  148,0,187,27,32,178,162,141,240,220,241,21,
  147,40,35,248,9,72,220,236,75,243,226,196,
  240,63,67,162,40,252,190,186,71,209,59,238,
  225,246,87,50,90,164,75,24,35,246,244,71,
  189,214,170,40,250,95,225,249,79,34,46,190,
  190,250,110,90,166,97,85,1,67,146,69,161,
  198,98,191,59,212,25,30,202,97,12,155,96,
  239,156,250,38,13,183,160,219,111,174,56,208,
  38,207,162,190,68,208,211,231,88,222,240,47,
  104,222,23,186,250,22,2,25,0,180,245,153,
  230,56,20,77,157,69,223,221,115,209,192,227,
  10,58,210,8,87,38,22,33,253,90,230,77,
  240,24,17,220,208,21,22,179,220,131,91,91,
  112,72,66,150,40,153,207,219,182,154,213,245,
  14,31,35,240,98,214,232,77,6,176,56,28,
  76,43,74,38,229,115,57,182,205,2,167,220,
  46,185,76,175,79,64,140,157,56,74,189,81,
  208,230,208,85,86,44,38,219,114,79,212,175,
  11,235,96,175,189,169,194,38,81,253,37,147,
  254,134,121,248,208,41,254,225,75,138,224,137,
  66,235,4,44,220,253,0,202,29,204,91,164,
  2,18,249,56,194,169,79,77,87,53,216,67,
  154,212,239,68,201,48,193,50,132,201,56,183,
  42,5,68,192,16,17,25,76,24,110,65,186,
  238,76,238,252,9,92,40,14,218,196,184,226,
  246,155,155,235,30,181,70,156,136,5,85,210,
  145,245,169,58,52,107,139,246,62,193,69,95,
  150,60,173,238,53,51,236,219,142,204,11,70,
  50,222,255,37,75,12,212,163,228,208,165,222,
  85,32,231,124,81,155,213,206,176,95,112,39,
  96,218,71,91,4,45,199,43,164,86,76,224,
  90,176,60,170,181,196,34,80,145,9,84,32,
  10,23,145,232,103,58,72,36,72,66,119,173,
  65,198,187,49,165,25,214,108,190,11,48,166,
  66,52,91,228,169,174,202,0,47,96,196,166,
  95,29,36,185,22,127,89,189,13,3,49,215,
  108,10,141,41,57,108,26,180,186,231,38,193,
  197,82,160,220,108,103,94,198,240,67,22,217,
  167,210,71,169,48,169,249,192,13,68,208,173,
  96,158,4,5,119,226,3,102,43,16,166,238,
  252,12,163,219,212,53,207,196,61,201,30,241,
  94,203,18,106,165,226,184,56,163,236,176,90,
  185,86,152,43,177,234,217,204,224,243,232,13,
  186,189,63,200,239,89,41,9,53,74,254,17,
  136,205,177,224,110,61,254,39,24,233,77,51,
  26,78,6,201,103,199,50,74,54,16,220,87,
  17,92,34,72,1,38,16,172,29,95,171,249,
  241,80,237,174,113,145,9,189,19,21,230,194,
  38,92,236,248,12,239,203,251,168,107,237,98,
  155,93,234,188,100,68,43,28,65,234,31,204,
  114,13,6,102,55,90,92,20,221,125,31,219,
  4,226,75,23,93,162,63,199,79,224,216,23,
  75,229,157,4,124,226,40,26,142,191,121,25,
  198,10,35,192,79,244,240,13,248,249,2,31,
  243,237,172,22,88,180,29,221,254,174,49,71,
  31,50,6,197,14,10,200,15,137,243,68,205,
  48,219,94,22,107,81,16,32,134,183,1,245,
  219,199,178,37,238,109,245,106,67,81,161,28,
  3,69,239,23,115,69,217,219,150,194,19,6,
  26,85,149,10,253,153,180,87,35,241,164,57,
  209,8,243,245,41,91,168,203,230,243,204,55,
  10,60,182,192,90,236,13,225,39,7,27,77,
  204,7,236,81,110,83,225,207,83,56,249,151,
  23,2,244,89,27,118,24,81,27,189,246,33,
  57,94,185,98,12,0,104,237,11,251,203,245,
  85,169,233,206,50,54,36,37,149,167,197,32,
  208,182,202,219,38,226,185,254,239,184,26,114,
  28,28,83,230,78,243,92,6,7,165,18,181,
  205,172,133,117,203,168,207,8,240,29,191,44,
  202,37,229,231,115,88,7,5,160,121,2,173,
  94,219,198,3,55,30,24,66,196,56,242,252,
  82,45,152,200,72,118,86,250,0,28,222,49,
  204,195,82,0,43,3,225,62,240,51,173,212,
  220,236,51,51,27,93,223,28,21,227,174,247,
  195,49,240,12,203,69,3,93,255,110,31,108,
  223,172,91,82,63,6,18,84,7,86,154,244,
  33,162,244,22,214,44,115,21,170,14,49,233,
  201,38,44,244,100,244,183,170,91,34,7,208,
  194,117,183,220,196,171,226,241,65,200,199,255,
  44,215,68,165,37,110,208,217,24,197,7,42,
  227,242,183,188,163,8,121,249,220,50,193,93,
  31,172,82,64,28,232,55,184,226,40,183,220,
  10,201,208,96,165,16,49,152,233,224,184,227,
  104,20,231,107,252,66,74,82,142,71,79,157,
  48,193,85,22,151,194,89,254,235,200,26,180,
  52,50,104,104,238,85,234,178,177,177,111,185,
  19,38,251,160,50,14,135,216,81,33,254,186,
  254,215,94,173,103,165,74,40,154,75,234,202,
  27,146,250,65,20,250,140,220,148,199,151,79,
  141,9,147,5,168,244,87,236,82,59,19,25,
  253,58,70,183,31,209,9,129,13,16,12,19,
  49,42,87,10,148,22,58,219,211,112,155,239,
  168,237,255,115,161,233,89,244,15,13,151,195,
  232,40,42,36,55,176,169,8,141,22,205,59,
  205,13,153,229,79,77,165,142,5,226,245,75,
  83,15,48,92,35,4,221,220,53,88,214,157,
  180,201,187,31,17,56,74,44,221,249,248,84,
  208,11,173,242,103,33,228,69,28,12,207,10,
  221,46,30,76,179,123,216,105,253,71,68,62,
  4,70,189,94,66,110,28,248,83,48,25,228,
  234,43,89,25,80,70,46,71,92,225,78,149,
  124,53,223,98,205,94,176,217,242,245,153,101,
  62,230,22,180,35,228,41,18,168,172,176,205,
  15,225,81,178,31,175,49,226,4,55,242,184,
  27,58,251,13,175,247,188,34,6,198,222,67,
  236,89,175,85,11,10,92,160,29,168,81,18,
  20,240,174,202,1,242,185,235,149,196,82,104,
  234,54,45,94,232,96,66,163,139,22,225,226,
  242,78,34,37,82,144,60,162,19,76,195,159,
  255,49,83,23,94,206,163,218,212,203,104,252,
  45,145,80,226,40,35,185,140,177,72,157,57,
  104,40,163,254,211,187,247,237,177,33,234,249,
  195,14,232,14,220,215,93,181,78,7,105,58,
  211,44,139,40,47,58,46,171,249,10,217,154,
  254,67,200,254,17,108,245,166,69,221,225,98,
  198,183,10,183,80,14,57,115,25,119,57,64,
  184,56,61,174,81,146,117,39,21,105,42,87,
  62,107,214,105,106,228,9,39,10,54,192,37,
  181,47,28,175,108,63,201,222,181,201,107,239,
  76,0,187,13,67,56,53,212,8,182,6,195,
  222,237,48,185,192,62,156,46,212,44,211,89,
  203,203,13,13,205,149,189,94,96,38,7,28,
  92,7,210,12,215,182,238,173,223,44,55,16,
  10,199,32,12,28,3,234,168,155,189,22,49,
  218,249,20,34,244,72,212,156,82,216,5,222,
  90,71,75,31,233,167,132,161,216,106,3,86,
  174,58,169,92,236,62,139,13,20,111,98,79,
  21,107,250,193,81,239,208,204,163,225,19,17,
  145,109,8,32,227,163,213,95,145,127,3,234,
  25,230,214,80,49,242,2,95,198,66,170,228,
  200,63,40,179,18,173,220,50,89,116,16,216,
  111,155,4,189,178,21,10,242,239,1,165,120,
  226,185,218,199,220,216,87,194,29,178,72,183,
  183,44,242,229,92,254,199,39,238,5,203,246,
  45,184,212,45,248,33,74,170,243,167,10,39,
  235,13,230,209,46,178,195,204,157,166,226,243,
  151,159,89,32,215,199,42,219,88,182,164,89,
  27,173,168,191,117,187,61,103,32,79,92,55,
  224,237,186,111,44,22,172,205,198,186,172,168,
  56,138,67,61,193,72,202,24,206,54,230,9,
  31,145,13,37,11,163,152,20,238,4,161,211,
  190,67,208,114,35,86,250,254,186,19,21,79,
  146,17,62,192,204,182,39,2,8,211,13,151,
  63,91,145,174,7,244,224,87,13,119,56,145,
  90,166,68,123,178,251,2,194,235,97,48,193,
  226,173,16,73,183,76,249,202,12,87,236,165,
  233,5,2,208,178,242,161,179,153,204,250,176,
  112,227,145,92,70,184,20,119,169,112,54,221,
  93,12,169,40,39,198,23,182,42,185,238,34,
  36,61,196,195,66,213,203,58,179,248,118,182,
  226,97,145,16,7,153,222,9,238,188,227,50,
  21,203,153,255,120,23,108,101,19,51,99,23,
  196,55,228,114,236,180,194,201,232,123,78,85,
  208,90,210,171,10,7,223,35,81,254,78,204,
  88,99,14,229,6,193,2,177,168,47,233,99,
  191,13,226,121,51,95,170,79,190,84,78,198,
  143,4,36,240,222,22,37,14,155,40,203,81,
  234,61,35,69,61,111,173,200,88,46,66,99,
  214,223,51,68,125,241,247,251,40,188,219,110,
  96,181,81,251,248,11,180,50,85,220,56,94,
  241,183,136,194,8,54,40,97,46,33,213,98,
  75,78,29,2,68,165,48,221,209,68,237,51,
  158,70,79,249,217,166,16,169,173,24,59,22,
  224,1,48,8,62,28,157,248,33,195,66,25,
  234,229,146,12,13,63,63,156,187,46,254,54,
  53,241,148,173,25,86,191,41,30,90,102,208,
  43,175,44,77,163,43,2,50,129,205,218,160,
  182,144,132,239,197,57,201,254,31,185,85,91,
  67,181,225,118,209,175,181,82,25,247,80,159,
  255,251,214,109,93,215,10,91,153,50,205,91,
  58,34,141,194,52,58,57,26,215,116,252,108,
  164,178,7,66,208,184,185,170,26,118,183,189,
  188,155,249,123,172,2,191,44,53,203,15,208,
  180,191,86,58,162,9,204,178,78,248,198,187,
  250,72,243,87,65,98,97,36,54,39,155,62,
  254,72,27,86,239,89,166,197,204,225,235,77,
  194,207,249,18,230,41,220,19,10,114,25,8,
  156,28,41,51,200,69,31,221,169,225,109,106,
  79,208,4,6,65,192,152,208,171,109,60,249,
  15,182,44,15,16,113,22,219,77,111,177,193,
  30,36,102,172,37,234,125,173,145,229,88,160,
  89,189,90,255,37,238,80,71,92,6,171,15,
  112,174,216,160,101,224,214,208,95,173,20,171,
  96,34,178,207,115,49,104,1,235,71,45,247,
  247,58,46,43,125,146,179,122,249,37,73,108,
  8,247,31,2,155,223,156,217,78,8,43,35,
  174,215,189,225,248,232,177,121,170,174,227,55,
  7,67,165,238,245,252,76,70,170,167,213,222,
  249,34,11,81,222,32,54,98,37,172,97,154,
  209,13,130,48,56,102,178,179,18,214,61,190,
  57,59,155,50,214,168,246,232,142,236,12,248,
  201,166,56,87,229,210,8,137,65,221,155,153,
  57,82,203,251,119,48,42,60,93,94,165,103,
  211,12,53,161,207,217,95,20,1,106,217,51,
  173,175,13,17,224,98,179,238,21,2,105,73,
  85,234,41,44,26,40,182,91,232,94,188,21,
  238,175,246,167,102,241,205,85,229,182,216,141,
  114,213,198,158,189,168,1,79,38,218,179,98,
  221,195,29,121,177,197,155,248,219,239,83,252,
  69,219,100,173,102,67,245,198,196,60,109,171,
  172,69,5,49,118,53,187,245,237,255,166,182,
  168,46,26,220,223,169,114,60,17,211,174,231,
  111,251,141,187,216,26,101,116,96,217,85,35,
  155,191,22,80,196,158,113,37,12,34,85,23,
  219,90,167,52,109,75,124,77,43,207,13,159,
  239,35,220,102,255,253,44,233,172,86,186,28,
  166,81,179,39,248,170,236,218,48,13,162,82,
  64,167,24,51,68,5,12,202,1,180,85,177,
  238,199,233,74,112,206,40,95,172,17,224,161,
  16,34,189,103,173,7,167,81,141,163,18,184,
  221,6,140,111,43,216,81,60,50,192,41,51,
  155,60,34,221,48,54,169,52,42,248,201,197,
  56,101,152,186,90,226,72,61,213,158,60,180,
  240,240,228,199,121,160,234,80,15,226,221,149,
  60,35,174,224,57,227,84,246,31,182,180,222,
  210,116,10,50,92,5,218,112,136,41,78,8,
  127,87,179,55,63,52,76,52,201,63,228,233,
  199,61,207,108,119,168,6,64,66,118,226,168,
  204,63,99,217,42,89,82,12,231,121,70,193,
  42,179,173,32,67,18,213,56,178,82,96,35,
  223,231,197,238,20,158,56,165,159,175,75,217,
  225,174,77,19,223,41,154,145,248,240,198,75,
  190,76,97,197,156,22,184,35,64,9,40,218,
  94,43,84,185,248,96,11,1,160,232,111,79,
  238,98,241,49,9,43,224,78,184,14,211,226,
  169,7,144,241,173,40,97,53,45,86,63,101,
  71,242,62,213,123,210,145,237,6,76,26,233,
  199,228,201,98,39,177,45,244,77,225,95,244,
  239,190,197,70,97,63,247,165,46,82,202,0,
  13,51,6,7,109,196,63,74,214,124,205,6,
  16,146,111,79,23,86,1,198,180,9,225,174,
  24,213,157,65,111,239,48,29,94,50,160,192,
  38,169,153,253,171,47,87,116,76,58,17,2,
  30,101,19,196,83,76,124,192,55,181,113,24,
  200,236,161,51,31,191,75,93,199,27,242,2,
  225,177,16,44,11,93,160,93,232,8,80,229,
  27,164,236,29,13,214,97,26,154,33,225,41,
  9,177,251,65,46,40,72,61,93,14,214,56,
  233,206,79,19,102,16,27,187,94,9,73,93,
  179,230,78,186,100,219,193,107,77,182,191,118,
  33,87,76,195,127,168,135,174,246,55,81,107,
  200,85,239,226,224,27,39,68,221,53,68,189,
  204,20,21,54,201,75,107,37,167,221,255,212,
  170,37,96,166,112,49,158,9,172,189,58,155,
  60,111,219,246,71,206,36,64,11,169,225,213,
  7,211,228,162,241,46,7,217,69,106,234,232,
  140,108,5,52,95,79,225,37,134,148,92,100,
  161,40,60,153,107,187,213,147,39,198,178,167,
  190,1,235,203,176,176,231,30,218,59,98,32,
  20,139,169,25,202,86,51,78,55,188,235,44,
  98,227,70,148,162,196,201,12,17,56,10,68,
  80,159,208,77,215,79,77,194,95,236,244,81,
  35,198,30,242,222,177,150,185,234,51,90,91,
  110,238,19,92,242,55,231,37,24,34,43,55,
  54,219,251,21,223,11,50,240,32,10,205,40,
  202,226,52,54,44,175,254,97,179,160,24,121,
  40,229,227,49,24,183,217,211,44,252,112,194,
  155,67,179,170,239,86,65,0,92,68,224,16,
  62,205,174,183,101,17,27,249,184,231,1,26,
  86,255,93,174,193,250,32,90,187,225,14,191,
  176,222,42,22,169,228,94,57,49,224,187,87,
  65,44,207,243,53,77,115,7,97,92,125,153,
  41,66,214,229,162,49,73,6,78,58,196,254,
  165,242,206,55,125,24,63,82,84,170,231,220,
  161,214,80,8,241,233,61,164,195,199,173,15,
  88,25,60,76,242,25,198,72,100,152,229,116,
  177,154,144,91,73,247,14,238,219,46,30,116,
  220,177,135,105,39,211,46,171,60,64,35,58,
  42,71,24,231,225,56,92,13,194,23,233,247,
  109,27,39,48,185,251,158,181,99,35,112,81,
  88,19,43,234,255,212,195,48,167,75,166,241,
  57,185,229,90,125,173,203,95,52,207,15,227,
  36,245,167,29,232,236,91,246,152,77,58,49,
  210,211,89,211,93,204,80,146,50,34,127,230,
  152,203,19,125,15,161,183,181,225,197,183,105,
  250,192,226,7,218,185,172,164,158,3,50,16,
  12,78,191,43,19,177,90,21,174,126,49,219,
  29,222,51,60,22,63,96,241,247,42,217,176,
  182,220,156,18,91,235,62,188,154,112,243,66,
  22,210,238,194,177,201,8,74,139,225,175,32,
  172,190,211,34,187,193,52,69,67,240,210,103,
  62,93,131,83,69,235,215,225,19,47,112,121,
  95,159,72,186,199,88,118,7,20,216,237,99,
  102,209,233,124,17,238,98,27,5,1,79,202,
  61,145,4,207,61,216,159,222,195,243,56,244,
  153,7,68,215,25,249,185,177,190,254,100,29,
  33,41,253,41,75,96,70,237,183,41,58,43,
  175,19,18,120,188,204,54,61,142,174,69,41,
  203,164,32,64,108,34,99,202,44,238,19,226,
  207,81,66,89,232,58,251,177,154,210,221,83,
  152,195,252,220,53,28,12,29,66,46,70,33,
  9,236,90,107,29,59,61,20,218,121,195,53,
  240,21,159,81,5,197,5,147,21,210,178,156,
  64,99,170,85,245,11,87,139,165,243,114,84,
  233,218,244,243,91,51,246,241,172,217,109,33,
  36,0,48,239,5,40,210,88,213,102,46,6,
  20,220,242,173,36,40,70,171,153,107,80,22,
  61,149,131,21,107,209,224,16,214,64,99,173,
  202,233,157,49,214,247,36,247,183,39,11,224,
  218,250,243,24,106,245,217,71,46,120,88,200,
  31,219,51,81,212,47,4,150,45,254,88,227,
  239,9,0,14,5,10,250,53,216,33,219,53,
  242,246,70,172,26,200,115,54,91,163,99,204,
  219,64,142,104,103,6,175,140,35,2,206,12,
  8,15,242,182,113,224,3,195,32,10,179,233,
  5,184,235,24,65,191,224,249,221,246,227,140,
  247,238,43,225,127,172,61,89,146,242,164,34,
  75,144,57,41,96,190,181,179,67,177,20,202,
  10,99,230,191,178,238,95,162,7,117,96,156,
  182,17,82,40,117,5,68,88,35,167,171,233,
  106,192,50,15,20,33,45,63,137,87,175,45,
  243,107,237,114,177,220,210,239,72,111,5,34,
  123,52,3,246,51,69,115,110,212,16,121,152,
  219,234,186,204,73,164,218,163,72,22,8,222,
  175,186,213,255,48,9,166,20,78,94,13,107,
  65,213,77,242,221,219,75,117,25,238,14,240,
  96,78,24,124,232,207,3,97,20,164,181,74,
  112,157,1,204,72,1,244,176,253,76,78,214,
  55,176,221,106,15,224,58,214,59,36,223,213,
  252,11,158,106,229,188,50,90,218,252,194,110,
  77,104,224,105,14,102,247,157,40,68,18,179,
  54,211,254,15,87,237,102,249,89,20,114,14,
  244,177,206,3,34,76,205,174,97,226,241,52,
  57,200,157,243,32,48,105,93,148,150,26,175,
  198,64,100,237,66,151,206,215,226,94,110,67,
  57,73,237,86,88,91,110,138,38,166,212,6,
  144,39,150,51,125,162,154,232,54,212,37,102,
  136,34,98,96,201,19,160,39,187,160,63,74,
  255,22,58,241,228,161,218,180,213,198,161,16,
  35,202,22,25,72,109,38,237,211,198,50,80,
  65,26,8,10,235,237,232,90,57,167,223,192,
  135,194,87,17,173,249,19,179,246,19,14,173,
  45,156,95,22,192,62,63,105,12,106,253,51,
  200,71,249,5,111,199,55,10,59,188,98,74,
  200,83,145,87,192,26,28,162,80,41,36,91,
  250,120,196,137,121,141,237,1,223,153,178,190,
  247,34,68,65,216,17,48,174,173,240,0,165,
  15,17,192,252,47,73,246,36,4,70,111,152,
  87,190,189,147,101,42,32,105,184,137,183,20,
  46,242,74,159,94,233,163,195,10,224,2,77,
  53,20,2,59,86,24,175,127,232,72,247,20,
  11,236,15,72,84,93,23,180,214,207,108,113,
  211,116,47,59,187,91,235,92,88,204,16,3,
  52,244,104,60,197,154,31,189,244,73,26,201,
  51,202,33,85,192,147,50,88,54,95,72,206,
  20,242,205,33,249,13,229,250,143,146,36,207,
  148,205,157,220,238,221,48,250,79,92,42,166,
  230,33,192,192,57,10,225,228,109,177,208,200,
  53,55,228,151,196,185,161,229,28,138,88,176,
  29,175,111,43,88,1,201,161,91,194,176,64,
  52,213,84,35,18,9,229,68,177,24,239,247,
  202,169,94,180,236,225,136,244,221,65,60,227,
  219,170,214,82,56,222,241,210,87,175,42,99,
  74,117,10,209,75,231,98,32,244,172,198,250,
  94,178,230,6,43,16,159,196,203,56,27,160,
  143,90,216,62,92,179,232,233,25,44,67,104,
  57,72,186,70,74,105,251,228,96,75,40,196,
  100,165,155,207,123,93,182,227,243,238,15,41,
  22,247,55,185,164,54,52,14,29,241,77,216,
  172,108,0,79,65,197,155,224,109,180,61,75,
  208,159,230,165,42,77,107,104,247,68,117,203,
  22,231,57,98,9,232,53,191,196,167,242,228,
  145,63,88,142,10,164,199,77,169,9,12,249,
  195,151,200,25,78,191,34,24,218,209,22,102,
  8,194,20,250,249,38,221,147,192,209,59,240,
  54,249,71,95,230,103,43,183,69,200,112,73,
  149,52,3,203,184,33,156,71,197,165,230,113,
  197,150,155,102,101,204,71,85,40,94,186,103,
  251,29,84,136,174,66,90,171,37,226,86,86,
  212,222,144,38,65,253,111,64,34,246,217,165,
  220,45,61,52,55,255,167,166,5,86,250,185,
  152,163,215,31,70,108,6,187,179,193,34,244,
  139,3,184,158,46,46,103,41,11,158,28,218,
  6,211,111,31,163,44,188,28,48,133,194,102,
  102,25,235,56,19,170,238,210,99,151,225,142,
  207,60,97,189,22,1,33,237,214,28,155,229,
  248,83,5,94,103,9,9,179,127,30,222,3,
  174,32,192,77,52,166,116,230,97,19,197,7,
  92,71,112,37,34,240,96,37,71,244,57,6,
  246,164,29,108,123,24,181,149,86,159,34,72,
  242,175,102,152,89,43,36,57,92,229,47,50,
  42,93,88,233,48,6,245,85,103,98,244,157,
  16,187,169,244,12,66,91,9,156,98,62,145,
  213,17,223,47,45,165,231,184,88,15,223,194,
  193,123,124,148,32,0,74,78,4,164,251,195,
  74,34,200,76,82,86,65,185,8,22,211,217,
  31,1,91,183,26,59,217,232,25,54,102,7,
  19,186,5,27,42,78,199,86,50,145,47,242,
  196,12,123,3,239,241,67,217,235,225,14,112,
  54,156,115,205,0,248,110,34,191,150,200,199,
  96,231,91,141,59,32,209,0,227,94,150,57,
  184,103,232,245,220,86,220,199,41,25,46,121,
  217,2,96,216,242,164,177,49,64,250,78,18,
  114,77,215,89,69,234,247,91,106,235,74,188,
  211,64,98,247,217,157,1,108,125,178,64,251,
  117,173,80,187,97,15,213,43,121,31,204,232,
  15,12,226,41,19,88,98,235,77,166,76,87,
  208,89,48,210,172,73,58,90,153,221,183,16,
  101,23,21,100,189,249,208,137,65,250,84,86,
  222,196,81,44,154,84,231,230,184,162,88,73,
  112,152,15,210,17,50,84,26,30,88,6,211,
  229,94,240,148,100,54,238,62,203,93,31,180,
  167,145,208,166,217,37,86,161,26,236,226,142,
  224,103,192,46,185,182,122,166,155,255,30,91,
  111,14,202,173,245,166,13,160,123,95,186,158,
  124,104,196,219,78,90,182,255,174,197,255,168,
  59,202,40,20,226,253,90,64,221,20,56,158,
  111,233,53,235,50,51,183,29,87,61,223,240,
  231,174,241,30,144,167,227,227,20,165,172,12,
  63,168,11,85,48,31,178,72,4,249,15,190,
  65,68,32,27,164,178,55,183,123,2,31,226,
  169,64,189,51,40,71,209,106,218,34,171,106,
  112,184,190,1,220,167,85,26,168,34,42,0,
  226,30,6,47,105,189,233,106,209,235,219,89,
  148,218,86,230,32,49,220,72,190,70,250,42,
  226,59,40,0,71,60,156,178,161,226,76,30,
  181,221,217,180,23,234,233,187,52,81,44,181,
  198,229,219,172,1,182,207,208,192,190,203,80,
  104,248,244,9,35,38,42,180,0,130,242,152,
  57,167,165,57,29,1,255,5,22,254,94,184,
  248,230,72,51,200,39,253,61,158,1,145,15,
  6,175,243,51,45,154,246,62,153,170,176,11,
  222,196,167,47,204,143,44,71,0,153,168,83,
  231,198,190,185,122,66,59,140,203,104,237,223,
  46,112,151,176,211,46,241,193,80,137,168,54,
  5,185,85,152,72,171,79,67,96,68,183,52,
  187,150,51,31,31,243,77,155,170,12,198,47,
  108,224,157,91,105,143,241,96,111,178,206,192,
  174,137,95,161,191,5,242,207,31,234,23,25,
  101,251,56,137,208,147,121,177,145,3,102,59,
  194,202,7,134,47,246,193,229,175,34,42,214,
  197,55,198,158,10,93,137,80,179,20,203,15,
  192,162,3,84,170,156,184,110,229,206,178,53,
  193,210,6,57,220,80,150,44,216,41,157,178,
  90,70,60,181,63,192,36,7,171,141,52,3,
  243,243,104,76,30,43,77,227,181,73,81,213,
  32,95,70,51,32,12,132,235,211,91,165,208,
  214,147,77,62,94,243,40,182,39,143,222,109,
  21,70,198,141,233,163,239,52,76,150,210,174,
  138,172,110,32,211,67,204,28,83,253,6,52,
  229,17,3,89,249,148,161,77,59,150,246,109,
  251,206,155,184,44,10,26,185,55,56,164,2,
  45,172,208,93,85,70,163,189,24,95,60,95,
  244,207,105,143,149,120,170,80,99,129,170,82,
  167,62,165,204,184,92,196,159,185,230,106,163,
  101,57,54,144,89,214,217,49,167,147,226,225,
  83,6,89,189,226,39,169,190,207,81,10,251,
  94,250,166,110,43,43,42,253,78,79,34,22,
  60,45,63,254,51,181,104,238,250,183,19,233,
  215,134,91,79,115,215,237,56,197,148,168,179,
  188,221,110,29,87,119,50,61,94,74,223,41,
  139,36,167,168,214,89,181,0,71,200,181,217,
  138,228,5,28,120,53,186,91,235,241,198,27,
  188,209,76,86,57,185,142,197,47,156,37,99,
  97,4,190,22,255,180,112,243,35,226,195,65,
  89,56,180,242,42,191,9,75,185,250,221,181,
  163,221,168,158,71,101,104,188,27,146,154,35,
  228,55,179,251,69,52,156,31,215,1,107,17,
  74,209,112,28,203,171,96,183,25,56,18,18,
  238,16,91,79,94,241,179,177,214,45,119,176,
  141,73,116,72,196,206,198,60,71,162,57,146,
  115,153,8,215,168,158,198,15,140,165,15,174,
  136,153,240,195,92,212,246,204,110,231,78,148,
  104,85,86,182,1,240,22,206,216,73,243,26,
  96,150,234,207,253,80,2,41,210,64,92,223,
  19,137,153,193,188,175,205,227,65,57,103,250,
  172,65,247,194,76,81,165,52,34,16,254,169,
  45,82,61,0,184,255,242,213,83,176,203,108,
  93,185,246,165,238,23,159,212,49,147,251,43,
  135,30,60,164,125,111,20,244,75,219,197,32,
  241,76,14,64,167,81,54,70,38,238,227,14,
  105,17,208,223,3,175,189,99,140,64,9,23,
  152,87,60,134,99,238,60,200,187,239,242,181,
  155,60,237,188,236,17,165,229,59,0,240,227,
  16,8,150,233,142,107,205,51,63,168,220,175,
  192,95,106,65,175,73,17,82,61,69,249,109,
  15,22,212,247,36,206,195,204,225,63,64,87,
  225,8,198,250,201,158,57,229,226,80,168,89,
  101,77,10,72,158,163,24,21,195,16,186,178,
  93,158,28,54,222,50,58,69,43,93,35,37,
  194,227,243,207,0,172,104,215,39,185,132,66,
  110,74,239,33,63,163,236,31,184,38,2,188,
  190,72,197,96,232,79,248,222,33,1,233,41,
  115,146,150,45,189,103,86,68,8,165,170,240,
  99,30,59,181,90,31,214,16,253,41,187,116,
  178,95,41,24,15,64,68,34,79,196,73,242,
  95,138,24,49,44,235,170,242,180,247,85,92,
  63,45,247,13,198,149,222,98,47,242,33,172,
  249,58,37,179,58,152,203,30,72,240,100,166,
  4,247,45,91,38,186,33,227,92,72,73,44,
  237,156,108,89,245,91,93,26,251,116,235,26,
  152,1,147,75,156,212,61,240,180,41,5,203,
  238,153,88,44,6,184,94,42,27,59,8,8,
  224,30,230,71,33,62,150,100,214,14,206,161,
  75,191,55,108,157,9,33,153,200,113,188,63,
  146,148,253,109,4,95,5,59,4,51,74,43,
  181,22,105,188,55,245,30,192,105,217,4,66,
  75,101,215,202,28,93,212,186,155,42,253,56,
  91,34,53,253,160,17,150,112,17,174,194,201,
  177,245,92,245,86,158,67,81,174,202,172,143,
  195,239,231,202,57,85,96,97,36,165,35,145,
  235,188,203,221,23,232,235,194,189,153,143,215,
  5,186,161,99,205,47,218,9,106,73,236,84,
  223,17,214,218,215,57,220,35,68,203,19,199,
  167,81,56,82,248,195,51,238,51,253,24,159,
  162,65,49,26,155,159,98,165,227,32,5,56,
  253,215,229,52,202,250,209,157,63,39,202,9,
  63,58,180,35,143,233,60,94,168,178,5,81,
  79,78,61,88,82,241,73,38,51,188,14,74,
  168,250,11,172,189,245,127,43,83,72,48,75,
  250,101,169,43,149,195,6,90,6,29,148,5,
  241,71,28,223,216,235,11,208,41,6,79,159,
  173,96,92,164,8,207,16,185,181,156,226,162,
  85,179,38,158,18,92,162,171,249,72,239,79,
  98,230,81,163,3,26,198,4,40,163,78,32,
  85,29,43,250,253,77,54,201,88,190,182,73,
  5,18,245,173,46,239,206,226,226,103,157,227,
  75,223,68,218,97,99,101,204,245,215,63,218,
  141,61,170,74,98,250,10,235,229,190,99,198,
  28,66,170,4,249,237,31,187,47,217,226,195,
  146,49,57,8,94,55,246,221,241,96,45,56,
  188,214,206,51,143,242,34,195,188,173,94,92,
  165,70,165,95,246,191,67,6,1,35,246,179,
  244,97,202,164,224,163,180,76,108,8,78,234,
  31,206,247,93,86,183,188,51,232,13,226,134,
  46,10,211,20,165,36,67,194,197,56,151,213,
  121,221,199,244,96,224,105,69,231,86,68,2,
  80,207,124,82,182,8,174,28,175,3,186,39,
  249,11,177,203,221,5,244,63,177,73,56,207,
  69,7,113,24,82,188,57,233,47,165,183,247,
  248,150,33,239,22,24,247,213,54,21,100,71,
  170,22,57,65,248,147,71,159,43,241,147,154,
  31,211,185,10,101,3,173,229,202,5,95,171,
  2,105,183,226,81,194,253,196,54,42,154,78,
  44,44,16,60,98,192,103,250,121,51,201,18,
  155,37,189,62,39,55,93,27,228,141,89,151,
  242,30,74,67,177,108,104,205,106,132,7,175,
  4,58,18,72,83,174,95,161,163,26,225,39,
  250,225,109,88,180,211,177,103,125,129,205,254,
  91,249,78,234,163,189,47,179,6,65,21,193,
  72,58,93,220,65,33,180,186,207,70,166,23,
  176,98,163,75,74,4,18,10,23,185,226,38,
  47,221,163,19,212,29,99,165,167,84,22,162,
  108,162,27,188,205,28,103,88,122,75,207,72,
  85,163,173,186,28,88,59,197,112,250,30,172,
  238,222,210,211,208,121,204,82,51,72,247,51,
  156,21,80,248,246,63,61,53,97,52,215,216,
  186,68,189,245,84,58,95,84,237,54,70,75,
  108,230,12,81,165,162,150,58,98,233,211,45,
  81,239,5,82,59,67,249,171,159,247,94,112,
  40,77,4,37,216,82,97,20,43,137,204,233,
  244,25,206,36,185,9,46,169,174,189,37,165,
  59,168,60,147,189,66,217,85,91,139,171,68,
  39,4,34,217,145,45,169,121,104,222,59,157,
  251,62,108,221,213,241,106,161,118,83,9,29,
  20,221,21,155,66,169,188,214,3,17,214,204,
  67,216,96,192,61,170,220,120,218,200,73,149,
  136,104,84,20,38,155,254,225,240,83,162,20,
  105,248,207,174,98,227,224,81,3,85,34,73,
  51,243,114,167,144,233,143,56,15,143,218,252,
  158,41,230,45,232,69,51,107,220,166,175,61,
  31,195,116,252,19,68,251,93,211,136,180,56,
  8,240,3,186,20,149,182,200,86,68,199,163,
  230,16,32,157,13,85,22,77,173,147,31,9,
  50,31,1,179,193,252,208,21,28,71,223,18,
  155,182,69,204,174,60,86,196,194,62,47,218,
  43,44,120,192,48,203,36,25,230,180,185,96,
  59,202,111,168,221,224,162,199,55,207,238,230,
  2,187,110,208,175,44,222,75,103,163,168,236,
  26,50,181,83,172,27,231,213,90,216,104,229,
  70,55,45,42,69,230,69,52,229,213,45,166,
  16,19,69,94,30,3,66,155,29,230,70,63,
  53,167,167,41,190,198,44,90,185,31,196,208,
  99,220,201,41,194,217,184,37,31,11,87,187,
  149,46,187,42,182,237,68,96,174,86,234,95,
  81,228,251,206,197,188,234,181,255,171,19,20,
  92,207,248,157,184,171,156,11,18,194,215,205,
  191,50,72,61,54,234,238,173,211,39,195,83,
  69,61,44,225,239,216,176,205,92,37,229,9,
  19,53,227,162,76,25,24,45,147,159,245,116,
  56,19,71,114,158,76,240,246,63,31,76,115,
  40,186,254,102,17,227,77,80,60,243,3,253,
  169,154,169,203,50,248,226,11,64,61,93,96,
  191,134,208,156,92,11,247,163,244,238,105,37,
  202,68,43,74,224,236,217,153,59,171,237,231,
  165,222,217,232,47,47,49,54,235,229,109,49,
  157,236,156,165,159,27,146,180,13,237,117,79,
  8,71,77,71,210,150,186,72,19,210,253,46,
  55,164,93,73,44,146,73,135,200,44,210,104,
  219,80,129,236,96,102,255,39,37,199,17,4,
  92,9,12,85,246,231,164,219,221,71,95,151,
  50,60,27,243,178,226,159,250,219,18,167,165,
  197,226,13,20,41,195,242,229,53,121,236,55,
  96,243,16,97,23,20,183,29,191,36,222,206,
  51,254,13,14,98,189,192,91,7,227,220,191,
  237,179,28,124,28,238,182,35,181,73,115,119,
  47,178,142,205,13,202,83,241,218,123,107,105,
  20,29,49,190,86,89,50,40,59,123,90,216,
  163,33,26,213,86,218,171,106,186,16,116,31,
  228,11,181,105,18,100,23,101,16,79,112,67,
  16,21,76,96,44,219,203,246,12,224,231,169,
  214,85,247,253,10,60,73,2,198,241,251,90,
  186,223,149,97,58,55,104,3,130,168,15,68,
  177,109,208,11,196,1,16,88,238,252,159,173,
  4,81,183,4,161,88,196,185,234,233,83,155,
  23,12,76,83,102,42,145,239,161,204,186,87,
  82,188,26,177,52,181,163,239,167,30,47,50,
  71,65,177,52,34,105,213,55,248,240,249,66,
  138,199,160,220,116,200,80,201,82,195,251,135,
  89,13,62,167,40,174,234,75,205,86,210,206,
  6,144,232,203,227,1,150,106,220,85,95,10,
  22,84,194,126,69,204,232,22,83,183,244,137,
  39,60,27,214,181,197,33,180,9,207,175,197,
  232,234,74,27,31,12,0,66,232,214,212,175,
  20,66,129,6,161,36,244,50,177,35,209,176,
  7,99,93,14,45,238,53,92,254,22,251,27,
  220,84,234,233,198,125,214,225,1,254,212,85,
  92,48,197,66,180,189,24,156,151,252,25,73,
  186,246,192,78,3,9,220,79,57,12,71,182,
  63,176,62,183,198,153,28,105,7,121,32,111,
  21,52,18,240,245,3,86,231,209,232,51,246,
  4,19,178,74,49,170,196,240,46,213,187,28,
  54,247,14,174,33,144,61,68,51,33,226,227,
  32,36,251,109,59,227,49,173,45,59,1,14,
  23,209,67,179,190,77,36,62,92,13,14,6,
  218,241,240,230,116,157,188,63,251,91,116,94,
  40,130,56,26,231,239,24,200,190,244,94,118,
  207,245,226,232,176,56,17,74,182,116,173,179,
  154,170,143,24,227,160,203,21,91,167,110,233,
  59,250,185,6,114,247,187,55,162,200,211,113,
  170,149,164,157,176,186,195,181,241,193,59,252,
  66,82,80,179,64,27,62,172,74,194,67,55,
  104,220,192,25,213,184,183,51,132,13,114,230,
  204,111,79,176,168,90,11,235,170,209,110,97,
  197,60,45,205,242,224,193,75,38,77,229,205,
  56,72,24,202,170,25,94,194,145,203,185,197,
  81,158,168,164,198,73,193,82,240,107,7,171,
  136,234,16,254,207,169,31,238,239,219,83,175,
  214,219,30,169,197,220,10,21,73,188,201,96,
  12,109,222,21,250,60,149,193,11,17,196,71,
  147,77,197,127,201,239,248,81,163,11,97,101,
  147,103,165,233,240,63,188,254,42,247,164,137,
  96,172,171,201,117,204,143,167,101,171,173,199,
  161,70,60,216,43,231,69,91,225,86,42,154,
  22,187,195,65,180,243,171,81,77,60,209,207,
  53,199,243,87,51,23,38,56,143,237,32,74,
  9,184,187,161,92,8,220,77,103,88,16,94,
  78,45,217,23,118,173,16,1,181,224,102,221,
  180,180,139,30,174,87,157,172,22,13,85,41,
  166,15,102,111,19,36,111,83,211,228,43,97,
  91,238,228,83,185,92,234,90,143,224,36,211,
  64,153,178,51,224,236,67,55,193,20,50,82,
  218,35,2,232,216,203,84,47,12,80,103,22,
  73,19,47,118,126,39,107,84,214,79,11,117,
  164,191,141,161,250,196,184,172,14,25,212,55,
  16,47,227,30,88,161,193,48,35,55,175,121,
  195,147,200,34,251,178,173,178,31,162,36,186,
  202,64,143,59,73,83,222,14,205,22,225,229,
  162,34,19,116,217,253,210,37,227,76,51,183,
  162,189,154,40,124,217,89,15,195,11,224,252,
  62,211,144,90,53,247,119,76,189,1,57,207,
  162,50,229,176,111,204,118,188,237,232,117,171,
  54,0,3,172,205,55,171,31,205,52,35,254,
  113,88,142,105,204,254,217,158,11,254,23,252,
  22,179,37,201,56,39,225,255,21,245,48,2,
  232,66,0,33,218,95,239,120,13,33,228,57,
  217,202,24,164,248,163,251,187,190,245,36,62,
  205,122,71,116,210,75,156,164,4,97,218,91,
  213,86,209,167,88,102,67,209,229,126,173,32,
  30,204,233,89,223,8,219,4,141,117,172,201,
  149,111,231,51,110,16,212,222,182,37,197,168,
  9,247,47,28,48,170,57,251,24,28,63,90,
  94,198,6,98,68,239,80,19,181,83,6,64,
  170,229,86,226,46,67,165,72,188,164,232,94,
  112,106,30,146,154,153,20,209,240,60,169,224,
  43,69,117,40,148,182,60,236,20,40,203,170,
  209,17,34,206,98,218,70,65,60,96,161,68,
  148,132,115,188,89,251,137,129,20,173,215,61,
  175,169,20,136,91,214,40,133,12,49,205,239,
  35,135,63,207,215,43,159,233,239,32,196,185,
  223,134,163,60,78,78,197,176,46,153,252,64,
  210,207,253,28,58,69,134,34,178,156,138,154,
  51,2,46,34,212,225,204,2,215,50,235,220,
  16,53,29,8,67,39,212,8,156,7,212,66,
  220,215,48,226,255,57,23,221,5,161,187,166,
  75,27,248,36,75,105,10,255,211,5,164,175,
  236,77,156,2,95,236,25,78,42,251,194,65,
  177,252,228,59,150,0,245,178,29,207,181,76,
  109,19,42,255,194,231,214,84,92,189,213,86,
  115,203,81,53,35,255,220,179,81,172,70,199,
  27,83,158,48,229,193,63,235,82,18,215,23,
  14,33,21,25,25,207,91,220,234,197,34,33,
  202,247,10,198,169,79,74,29,82,190,90,236,
  195,69,192,177,245,174,8,26,30,54,76,110,
  158,64,80,215,217,42,60,99,26,55,196,233,
  70,108,188,225,244,4,70,118,195,41,49,17,
  55,121,57,32,178,14,237,54,209,189,221,19,
  9,15,208,50,248,81,209,8,70,249,37,225,
  161,211,64,183,97,163,30,19,242,213,140,17,
  173,227,191,72,154,163,217,29,121,80,235,216,
  158,211,186,140,32,225,211,1,67,192,54,166,
  58,229,13,14,59,243,17,81,86,164,204,65,
  208,183,23,150,243,44,70,80,249,159,149,90,
  153,45,1,14,192,228,138,90,246,202,247,15,
  10,218,69,83,168,99,36,13,234,69,142,38,
  75,20,120,49,192,51,40,103,5,158,163,215,
  43,195,60,247,27,45,97,164,163,72,89,75,
  58,96,56,82,4,12,255,55,208,208,154,28,
  167,83,82,175,200,51,170,154,98,72,74,2,
  6,80,242,190,32,49,13,243,175,238,190,60,
  28,168,243,249,31,180,170,255,41,161,189,232,
  59,58,9,177,205,118,160,43,206,220,39,73,
  61,217,211,238,221,109,176,86,88,165,46,105,
  65,81,168,197,218,203,175,68,4,191,153,1,
  146,237,69,59,151,196,180,167,33,47,236,180,
  238,213,63,76,146,231,66,92,66,22,96,185,
  217,29,222,150,231,160,193,52,103,238,189,151,
  206,155,195,58,244,62,72,99,73,218,18,254,
  5,200,3,85,54,209,74,217,39,247,84,80,
  172,102,184,142,84,237,222,155,240,225,175,90,
  234,76,72,71,52,199,84,23,40,161,78,17,
  47,112,100,29,201,35,24,53,220,131,181,143,
  163,237,74,13,239,136,113,191,249,183,140,2,
  207,170,4,78,43,161,35,247,49,240,194,149,
  225,203,246,9,60,207,255,197,99,159,198,156,
  231,34,205,166,168,239,59,221,240,4,253,217,
  35,100,109,158,167,202,231,74,12,175,143,249,
  184,101,206,217,224,54,197,253,89,170,147,152,
  58,164,220,5,185,0,254,215,195,236,247,227,
  59,77,167,1,1,245,173,74,37,204,237,146,
  10,255,34,159,89,86,22,5,22,232,63,77,
  80,218,118,210,32,1,252,96,112,64,42,218,
  196,73,6,68,12,141,158,53,175,172,164,235,
  0,242,10,252,149,212,224,220,74,204,24,129,
  192,215,198,137,153,185,79,30,199,44,61,149,
  163,0,102,0,237,3,51,197,72,139,207,70,
  102,31,42,83,12,57,2,166,186,158,76,192,
  21,50,217,16,225,22,80,89,44,161,164,255,
  208,253,109,157,24,3,112,94,124,52,22,238,
  61,212,240,194,213,52,8,161,92,56,73,69,
  56,105,60,46,169,105,245,220,19,54,150,62,
  31,251,185,81,184,194,94,108,83,21,172,17,
  69,76,1,239,9,50,89,18,165,28,231,70,
  91,240,64,176,146,180,5,247,167,206,255,178,
  235,22,26,160,92,245,80,48,74,134,213,114,
  74,27,205,203,250,55,162,53,190,158,225,103,
  24,174,127,226,60,1,208,19,176,55,243,3,
  10,208,223,25,36,66,250,4,84,93,168,59,
  64,48,44,43,60,25,157,216,246,27,200,208,
  50,55,193,251,45,100,131,163,206,77,151,61,
  154,39,106,4,88,181,223,64,97,91,216,28,
  200,146,185,0,59,31,2,150,79,236,156,27,
  165,23,34,28,5,172,202,90,213,226,208,13,
  0,186,239,213,171,38,244,240,2,15,80,140,
  232,240,212,147,35,218,3,186,232,38,225,150,
  193,180,235,249,220,219,74,1,173,32,46,70,
  172,160,119,235,182,71,18,193,44,248,26,184,
  234,39,32,178,52,238,214,63,184,152,2,90,
  2,224,68,24,61,184,235,55,253,8,174,175,
  220,198,243,91,163,214,192,199,65,205,74,228,
  233,63,44,181,156,228,13,7,238,60,144,187,
  100,24,226,30,18,228,62,219,29,183,187,49,
  58,248,40,50,153,52,62,41,55,190,241,223,
  37,30,165,209,46,9,143,190,95,147,157,73,
  207,153,33,162,54,157,13,23,208,150,190,86,
  182,87,124,155,66,96,19,88,202,90,213,185,
  50,244,201,165,206,199,9,111,61,253,177,30,
  200,246,11,48,194,62,253,24,77,238,83,230,
  190,80,52,147,209,176,160,176,75,64,54,194,
  196,75,48,22,48,169,56,14,65,250,142,222,
  30,211,22,29,209,205,112,53,17,85,213,35,
  37,8,122,143,44,227,239,72,1,29,28,192,
  73,184,37,28,207,245,197,172,37,27,42,40,
  93,57,44,120,31,134,209,58,84,161,45,101,
  203,251,193,0,10,168,50,208,93,253,4,79,
  45,170,18,71,84,212,36,163,248,81,194,89,
  59,187,179,45,37,102,174,51,141,1,176,214,
  216,222,197,157,241,32,39,140,233,68,54,81,
  201,4,179,77,213,173,26,51,14,50,60,240,
  45,84,227,178,165,73,250,240,199,217,74,11,
  88,74,249,72,37,64,22,135,213,184,63,6,
  61,143,23,107,194,33,6,50,236,191,83,32,
  108,250,226,124,111,225,201,11,79,241,67,28,
  185,6,144,3,56,254,178,11,86,28,67,183,
  202,222,223,200,191,10,166,213,30,65,182,179,
  196,57,237,105,79,194,232,96,254,87,197,249,
  223,112,83,174,52,32,111,59,242,55,77,86,
  91,50,130,17,79,217,86,68,130,102,212,5,
  93,124,91,2,169,208,7,254,154,194,93,235,
  99,231,3,93,0,166,91,226,130,245,69,40,
  52,254,169,80,217,190,157,99,209,78,235,249,
  198,16,132,31,77,53,173,211,193,213,243,149,
  225,30,249,81,105,79,212,38,176,88,183,255,
  201,19,225,114,63,185,213,186,208,170,247,3,
  67,161,201,76,170,223,15,23,157,100,99,55,
  194,115,56,194,3,225,220,159,41,81,71,81,
  232,99,44,185,71,192,138,35,210,192,6,6,
  183,208,185,19,187,248,70,163,181,87,117,25,
  16,184,15,39,190,168,101,114,250,34,255,90,
  55,52,151,6,36,10,57,11,62,81,108,58,
  212,14,61,27,211,208,81,217,89,90,69,54,
  234,225,73,72,165,218,2,35,32,48,104,100,
  140,68,75,243,252,203,35,207,78,105,194,48,
  83,24,224,215,93,124,147,33,29,112,14,231,
  197,10,203,208,33,148,67,86,152,54,16,216,
  97,83,177,123,241,42,142,220,72,62,108,19,
  166,94,225,75,12,156,100,245,234,114,197,251,
  161,250,2,71,2,69,50,248,3,229,113,247,
  0,8,248,241,41,154,253,213,253,214,124,174,
  191,96,88,21,12,20,226,110,168,173,11,93,
  78,92,41,98,195,72,29,170,148,95,204,167,
  99,57,37,117,206,137,111,29,226,127,80,203,
  246,214,206,108,228,52,111,213,155,49,73,201,
  4,23,131,228,92,198,17,89,131,192,213,159,
  114,132,156,89,181,191,19,170,196,24,183,189,
  3,165,171,191,111,53,45,198,61,96,6,44,
  183,36,135,211,65,239,8,254,137,208,253,219,
  104,64,188,200,42,82,16,188,94,228,89,36,
  78,1,53,53,228,58,159,107,254,77,122,124,
  227,116,129,252,40,69,215,37,134,89,2,33,
  248,239,93,214,8,8,237,223,153,81,219,82,
  195,243,65,54,241,85,230,54,145,74,172,180,
  191,105,75,87,222,177,214,175,3,91,0,3,
  174,65,252,95,46,245,36,210,168,164,230,46,
  156,179,22,147,93,70,238,51,231,81,250,178,
  200,92,173,41,186,208,249,137,157,91,252,37,
  82,70,56,148,117,247,108,196,190,248,52,64,
  186,40,69,38,24,6,65,173,104,208,103,38,
  90,22,99,63,91,41,100,30,121,201,216,209,
  235,92,193,251,190,251,235,238,164,251,56,214,
  221,241,193,216,240,248,135,154,38,87,56,134,
  187,138,164,205,54,243,155,75,118,183,163,36,
  129,168,232,57,242,181,252,103,61,193,252,22,
  248,19,175,81,211,92,197,71,188,34,194,59,
  153,73,75,253,214,226,14,57,77,81,26,8,
  197,182,50,244,230,218,193,58,46,250,151,149,
  188,237,217,26,180,14,104,119,169,27,9,170,
  164,218,164,45,42,75,20,202,54,39,54,179,
  18,165,21,187,177,154,95,1,157,171,235,238,
  228,81,244,226,163,204,211,25,229,142,109,195,
  238,100,217,52,230,235,89,37,20,254,227,210,
  113,28,184,137,88,243,34,173,211,191,249,93,
  215,175,237,34,42,46,50,171,219,198,56,107,
  21,37,193,74,59,108,215,152,14,72,4,69,
  173,183,103,147,7,235,76,93,255,251,54,14,
  146,240,232,33,223,172,80,192,192,179,99,11,
  78,210,249,165,25,69,55,79,237,38,161,80,
  181,79,170,195,35,251,40,40,119,248,68,223,
  92,27,196,191,81,75,227,86,2,181,234,3,
  93,221,212,95,9,207,161,193,162,247,160,181,
  162,245,28,158,202,73,204,148,109,11,236,204,
  31,63,78,48,47,172,99,153,249,252,217,209,
  248,86,163,19,82,26,157,182,36,22,92,194,
  188,53,178,241,221,46,202,245,35,138,93,41,
  20,1,78,87,202,221,30,58,30,191,106,76,
  168,41,11,154,95,82,244,3,200,212,218,102,
  154,37,47,151,204,184,119,164,70,78,18,28,
  195,247,247,186,200,189,154,23,115,145,64,78,
  174,255,47,144,73,63,11,46,19,63,50,249,
  93,114,163,166,67,248,186,58,55,171,44,70,
  106,234,192,66,102,200,172,47,120,183,239,158,
  191,246,92,0,150,169,84,180,221,79,200,66,
  25,241,191,33,249,223,8,0,64,241,229,30,
  18,156,96,142,32,74,52,226,188,34,73,14,
  166,217,92,33,182,161,151,255,173,23,29,185,
  89,221,217,13,53,218,15,69,13,67,184,210,
  197,106,187,93,149,203,153,73,252,16,22,94,
  66,211,27,180,182,27,188,20,7,228,22,26,
  232,249,48,241,149,107,10,225,54,10,173,95,
  2,200,54,96,72,185,162,17,60,151,111,255,
  41,238,228,184,191,226,150,180,227,48,244,52,
  155,236,4,195,99,242,168,217,10,237,108,12,
  207,71,109,65,42,198,244,93,235,16,232,60,
  212,117,26,4,5,84,67,238,226,15,84,60,
  47,47,2,196,205,84,242,235,48,247,57,226,
  186,241,47,36,164,148,170,41,170,254,208,27,
  76,3,29,1,179,21,24,156,211,223,183,95,
  142,176,171,165,163,216,160,141,185,14,88,136,
  19,65,241,40,49,34,26,232,42,85,199,9,
  141,252,95,49,205,37,246,81,206,124,26,106,
  37,141,130,218,185,123,165,241,81,70,84,240,
  10,129,28,243,7,102,186,246,163,9,38,77,
  173,211,66,0,82,185,15,90,31,188,97,43,
  190,102,173,184,226,212,7,51,138,231,110,218,
  14,241,66,176,117,213,58,212,34,20,37,212,
  228,191,144,29,241,181,104,236,77,76,246,47,
  11,237,176,203,157,245,180,245,10,125,75,120,
  169,192,17,119,107,101,26,193,189,191,168,145,
  229,27,239,239,233,144,102,81,222,6,63,21,
  242,48,91,191,237,145,20,106,62,117,53,157,
  50,10,218,194,102,100,92,246,195,62,105,63,
  213,230,42,13,253,182,146,240,209,254,40,152,
  194,231,190,100,185,21,252,152,175,50,81,32,
  228,215,145,224,159,207,44,190,251,211,251,2,
  157,31,70,54,233,0,206,81,211,39,221,74,
  248,207,2,181,14,206,14,91,67,17,100,57,
  243,70,81,36,188,220,79,43,142,172,3,227,
  8,109,180,85,70,78,204,105,13,123,97,8,
  19,241,224,59,82,8,206,22,184,198,111,166,
  234,163,232,213,49,102,46,167,189,6,37,187,
  216,81,96,55,107,41,37,14,185,34,164,188,
  61,173,1,170,2,86,207,167,196,57,93,70,
  50,205,16,73,66,185,57,182,54,54,227,245,
  195,178,39,178,170,93,102,238,211,66,239,238,
  110,193,236,43,161,62,80,220,215,90,20,253,
  147,197,241,201,178,173,68,198,25,174,32,69,
  167,238,205,55,46,239,85,20,168,31,82,217,
  12,225,220,216,63,36,156,50,243,14,166,215,
  152,78,95,179,209,67,60,204,62,124,73,197,
  251,180,60,243,170,191,77,217,190,121,103,179,
  50,83,205,238,183,36,109,61,58,165,164,210,
  120,174,133,92,6,33,179,7,182,94,32,5,
  78,182,20,10,12,32,237,196,169,75,51,185,
  123,176,47,217,95,19,95,224,226,100,76,122,
  115,16,245,199,52,31,55,230,160,6,228,59,
  225,15,152,235,102,228,169,31,190,175,179,191,
  121,196,203,86,183,91,25,244,30,229,228,160,
  109,93,165,164,18,165,0,73,84,112,217,97,
  235,153,222,35,83,184,253,216,182,198,113,20,
  39,105,175,19,203,172,15,218,80,50,197,177,
  49,38,24,39,40,108,199,161,56,245,96,196,
  3,7,228,245,18,188,63,219,96,61,33,183,
  63,220,39,95,105,4,220,163,211,80,14,100,
  190,182,15,37,3,245,248,106,26,180,47,6,
  76,190,171,58,82,69,88,60,184,56,82,209,
  39,239,61,82,222,166,236,68,28,103,97,68,
  162,0,60,18,79,195,198,238,25,234,19,2,
  251,40,78,192,64,58,41,155,239,127,168,27,
  245,219,33,56,76,162,185,205,208,160,121,223,
  76,25,217,205,112,167,247,196,252,73,87,22,
  101,179,194,78,84,211,167,87,34,204,228,43,
  216,28,196,208,110,227,250,90,56,206,233,187,
  177,61,70,125,197,38,219,73,93,248,95,23,
  82,103,147,9,75,30,108,169,236,26,64,200,
  230,61,187,3,94,47,237,68,193,249,186,159,
  55,121,135,195,123,196,11,217,179,191,18,18,
  14,63,143,74,64,221,196,193,146,62,35,206,
  69,117,44,99,9,185,46,75,248,205,40,26,
  74,58,242,102,176,208,250,73,179,165,175,141,
  85,21,73,92,246,222,147,60,36,74,48,249,
  95,101,81,9,9,249,54,234,197,17,76,27,
  57,166,175,39,104,20,222,219,46,55,62,47,
  167,85,188,51,210,85,50,0,223,19,224,190,
  37,232,218,8,175,148,193,89,220,221,180,23,
  25,74,194,23,9,63,35,45,212,57,199,186,
  164,47,139,231,101,207,68,254,53,193,109,28,
  84,41,221,13,67,14,112,22,132,175,56,99,
  231,253,237,158,218,166,115,139,179,119,201,227,
  205,23,143,111,209,249,245,60,134,166,212,11,
  59,31,195,118,248,157,22,232,195,16,249,104,
  249,82,198,84,159,172,244,75,34,24,14,21,
  194,58,142,101,255,162,254,177,149,79,200,42,
  21,150,241,237,0,76,168,11,36,251,198,160,
  62,174,158,191,234,53,169,234,52,173,167,115,
  220,182,249,221,218,18,184,187,1,77,185,52,
  29,220,212,13,169,111,65,205,69,159,58,204,
  39,66,152,82,22,104,101,136,15,56,240,96,
  240,75,241,223,18,247,20,31,6,196,68,96,
  204,1,40,87,52,152,177,239,172,172,78,218,
  0,225,23,243,121,74,202,4,64,209,187,242,
  87,35,145,111,14,153,90,213,29,64,249,47,
  15,9,245,247,207,193,211,20,59,229,183,30,
  255,17,234,122,98,230,211,231,157,58,239,75,
  94,164,204,210,68,83,214,161,87,34,231,205,
  180,244,230,168,172,203,116,175,251,90,254,175,
  183,253,165,181,123,234,116,244,46,94,121,0,
  100,7,2,252,239,201,12,169,66,230,19,248,
  43,210,176,1,46,161,75,169,186,196,197,107,
  90,204,244,171,25,5,63,218,237,105,222,105,
  72,91,41,27,108,217,50,250,61,100,190,244,
  154,33,132,189,250,161,187,103,50,65,245,210,
  76,236,236,158,251,96,89,254,9,10,77,197,
  12,213,32,159,70,88,181,176,134,253,255,255,
  4,0,0,0,128,0,0,0,254,255,255,255,
  3,0,0,0,255,255,255,255,254,255,255,255,
  3,0,0,0,0,0,0,0,253,255,255,255,
  2,0,0,0,254,255,255,255,253,255,255,255,
  253,255,255,255,3,0,0,0,3,0,0,0,
  253,255,255,255,0,0,0,0,252,255,255,255,
  253,255,255,255,252,255,255,255,252,255,255,255,
  253,255,255,255,0,0,0,0,254,255,255,255,
  1,0,0,0,2,0,0,0,254,255,255,255,
  253,255,255,255,2,0,0,0,3,0,0,0,
  252,255,255,255,255,255,255,255,253,255,255,255,
  253,255,255,255,18,254,255,255,4,0,0,0,
  64,0,0,0,20,152,161,69,215,129,252,241,
  57,250,36,162,252,10,121,47,57,225,59,238,
  199,255,60,177,142,86,220,201,121,135,34,187,
  235,50,144,31,43,140,146,247,129,211,205,207,
  75,160,51,4,34,22,249,96,83,90,221,234,
  135,225,52,228,116,7,241,143,94,254,255,255,
  4,0,0,0,8,0,0,0,253,255,255,255,
  3,0,0,0,114,254,255,255,4,0,0,0,
  4,0,0,0,88,2,0,0,130,254,255,255,
  4,0,0,0,4,0,0,0,1,0,0,0,
  146,254,255,255,4,0,0,0,4,0,0,0,
  0,0,0,0,44,245,255,255,48,245,255,255,
  15,0,0,0,77,76,73,82,32,67,111,110,
  118,101,114,116,101,100,46,0,1,0,0,0,
  20,0,0,0,0,0,14,0,24,0,20,0,
  16,0,12,0,8,0,4,0,14,0,0,0,
  20,0,0,0,28,0,0,0,224,1,0,0,
  228,1,0,0,232,1,0,0,4,0,0,0,
  109,97,105,110,0,0,0,0,7,0,0,0,
  144,1,0,0,48,1,0,0,224,0,0,0,
  184,0,0,0,112,0,0,0,56,0,0,0,
  4,0,0,0,246,254,255,255,20,0,0,0,
  0,0,0,9,20,0,0,0,24,0,0,0,
  5,0,0,0,50,255,255,255,0,0,128,63,
  1,0,0,0,14,0,0,0,1,0,0,0,
  13,0,0,0,38,255,255,255,20,0,0,0,
  0,0,0,8,16,0,0,0,20,0,0,0,
  4,0,0,0,236,245,255,255,1,0,0,0,
  13,0,0,0,3,0,0,0,12,0,0,0,
  5,0,0,0,4,0,0,0,90,255,255,255,
  20,0,0,0,0,0,0,8,20,0,0,0,
  24,0,0,0,4,0,0,0,242,254,255,255,
  0,0,0,1,1,0,0,0,12,0,0,0,
  3,0,0,0,11,0,0,0,7,0,0,0,
  6,0,0,0,0,0,10,0,16,0,12,0,
  8,0,4,0,10,0,0,0,12,0,0,0,
  16,0,0,0,3,0,0,0,1,0,0,0,
  11,0,0,0,2,0,0,0,0,0,0,0,
  10,0,0,0,194,255,255,255,28,0,0,0,
  0,0,0,59,28,0,0,0,32,0,0,0,
  2,0,0,0,0,0,6,0,8,0,4,0,
  6,0,0,0,2,0,0,0,1,0,0,0,
  10,0,0,0,2,0,0,0,9,0,0,0,
  3,0,0,0,0,0,14,0,26,0,20,0,
  16,0,12,0,11,0,4,0,14,0,0,0,
  36,0,0,0,0,0,0,32,36,0,0,0,
  40,0,0,0,1,0,0,0,0,0,14,0,
  8,0,0,0,0,0,0,0,0,0,4,0,
  14,0,0,0,1,0,0,0,1,0,0,0,
  9,0,0,0,4,0,0,0,8,0,0,0,
  1,0,0,0,2,0,0,0,2,0,0,0,
  0,0,14,0,22,0,0,0,16,0,12,0,
  11,0,4,0,14,0,0,0,24,0,0,0,
  0,0,0,55,24,0,0,0,28,0,0,0,
  0,0,6,0,8,0,7,0,6,0,0,0,
  0,0,0,2,1,0,0,0,8,0,0,0,
  1,0,0,0,0,0,0,0,1,0,0,0,
  14,0,0,0,1,0,0,0,0,0,0,0,
  15,0,0,0,220,8,0,0,128,8,0,0,
  40,8,0,0,236,7,0,0,124,7,0,0,
  8,7,0,0,52,5,0,0,88,3,0,0,
  8,3,0,0,180,2,0,0,92,2,0,0,
  216,1,0,0,36,1,0,0,128,0,0,0,
  4,0,0,0,118,247,255,255,0,0,0,1,
  24,0,0,0,32,0,0,0,60,0,0,0,
  15,0,0,0,0,0,0,9,80,0,0,0,
  2,0,0,0,255,255,255,255,2,0,0,0,
  92,247,255,255,8,0,0,0,16,0,0,0,
  1,0,0,0,128,255,255,255,255,255,255,255,
  1,0,0,0,0,0,128,59,27,0,0,0,
  83,116,97,116,101,102,117,108,80,97,114,116,
  105,116,105,111,110,101,100,67,97,108,108,95,
  49,58,48,0,2,0,0,0,1,0,0,0,
  2,0,0,0,238,247,255,255,0,0,0,1,
  24,0,0,0,32,0,0,0,64,0,0,0,
  14,0,0,0,0,0,0,9,120,0,0,0,
  2,0,0,0,255,255,255,255,2,0,0,0,
  212,247,255,255,8,0,0,0,20,0,0,0,
  1,0,0,0,80,0,0,0,0,0,0,0,
  0,0,0,0,1,0,0,0,168,167,62,63,
  60,0,0,0,102,117,110,99,116,105,111,110,
  97,108,95,49,47,100,101,110,115,101,95,49,
  95,50,47,77,97,116,77,117,108,59,102,117,
  110,99,116,105,111,110,97,108,95,49,47,100,
  101,110,115,101,95,49,95,50,47,66,105,97,
  115,65,100,100,0,0,0,0,2,0,0,0,
  1,0,0,0,2,0,0,0,142,248,255,255,
  0,0,0,1,24,0,0,0,32,0,0,0,
  60,0,0,0,13,0,0,0,0,0,0,9,
  136,0,0,0,2,0,0,0,255,255,255,255,
  32,0,0,0,116,248,255,255,8,0,0,0,
  16,0,0,0,1,0,0,0,128,255,255,255,
  255,255,255,255,1,0,0,0,40,86,167,63,
  82,0,0,0,102,117,110,99,116,105,111,110,
  97,108,95,49,47,100,101,110,115,101,95,49,
  47,77,97,116,77,117,108,59,102,117,110,99,
  116,105,111,110,97,108,95,49,47,100,101,110,
  115,101,95,49,47,82,101,108,117,59,102,117,
  110,99,116,105,111,110,97,108,95,49,47,100,
  101,110,115,101,95,49,47,66,105,97,115,65,
  100,100,0,0,2,0,0,0,1,0,0,0,
  32,0,0,0,62,249,255,255,0,0,0,1,
  24,0,0,0,32,0,0,0,64,0,0,0,
  12,0,0,0,0,0,0,9,88,0,0,0,
  2,0,0,0,255,255,255,255,88,2,0,0,
  36,249,255,255,8,0,0,0,20,0,0,0,
  1,0,0,0,0,0,0,0,0,0,0,0,
  0,0,0,0,1,0,0,0,152,151,137,64,
  30,0,0,0,102,117,110,99,116,105,111,110,
  97,108,95,49,47,102,108,97,116,116,101,110,
  95,49,47,82,101,115,104,97,112,101,0,0,
  2,0,0,0,1,0,0,0,88,2,0,0,
  22,250,255,255,0,0,0,1,20,0,0,0,
  20,0,0,0,11,0,0,0,0,0,0,2,
  52,0,0,0,0,250,255,255,36,0,0,0,
  102,117,110,99,116,105,111,110,97,108,95,49,
  47,102,108,97,116,116,101,110,95,49,47,82,
  101,115,104,97,112,101,47,115,104,97,112,101,
  0,0,0,0,1,0,0,0,2,0,0,0,
  106,250,255,255,0,0,0,1,20,0,0,0,
  20,0,0,0,10,0,0,0,0,0,0,2,
  52,0,0,0,84,250,255,255,36,0,0,0,
  102,117,110,99,116,105,111,110,97,108,95,49,
  47,102,108,97,116,116,101,110,95,49,47,115,
  116,114,105,100,101,100,95,115,108,105,99,101,
  0,0,0,0,0,0,0,0,186,250,255,255,
  0,0,0,1,20,0,0,0,20,0,0,0,
  9,0,0,0,0,0,0,2,44,0,0,0,
  164,250,255,255,28,0,0,0,102,117,110,99,
  116,105,111,110,97,108,95,49,47,102,108,97,
  116,116,101,110,95,49,47,83,104,97,112,101,
  0,0,0,0,1,0,0,0,3,0,0,0,
  6,251,255,255,0,0,0,1,20,0,0,0,
  168,1,0,0,8,0,0,0,0,0,0,9,
  180,1,0,0,132,250,255,255,8,0,0,0,
  12,1,0,0,32,0,0,0,0,0,0,0,
  0,0,0,0,0,0,0,0,0,0,0,0,
  0,0,0,0,0,0,0,0,0,0,0,0,
  0,0,0,0,0,0,0,0,0,0,0,0,
  0,0,0,0,0,0,0,0,0,0,0,0,
  0,0,0,0,0,0,0,0,0,0,0,0,
  0,0,0,0,0,0,0,0,0,0,0,0,
  0,0,0,0,0,0,0,0,0,0,0,0,
  0,0,0,0,0,0,0,0,0,0,0,0,
  0,0,0,0,0,0,0,0,0,0,0,0,
  0,0,0,0,0,0,0,0,0,0,0,0,
  0,0,0,0,0,0,0,0,0,0,0,0,
  0,0,0,0,0,0,0,0,0,0,0,0,
  0,0,0,0,0,0,0,0,0,0,0,0,
  0,0,0,0,0,0,0,0,0,0,0,0,
  0,0,0,0,0,0,0,0,0,0,0,0,
  0,0,0,0,0,0,0,0,0,0,0,0,
  0,0,0,0,0,0,0,0,0,0,0,0,
  0,0,0,0,0,0,0,0,0,0,0,0,
  0,0,0,0,0,0,0,0,0,0,0,0,
  0,0,0,0,0,0,0,0,0,0,0,0,
  0,0,0,0,0,0,0,0,0,0,0,0,
  0,0,0,0,32,0,0,0,156,97,96,58,
  66,93,92,58,34,16,95,58,141,83,100,58,
  18,27,98,58,84,94,95,58,24,31,96,58,
  39,75,100,58,153,220,89,58,89,71,98,58,
  224,194,101,58,63,187,103,58,147,131,100,58,
  157,165,103,58,206,84,103,58,158,209,104,58,
  216,200,91,58,247,222,101,58,240,218,102,58,
  11,81,98,58,8,220,95,58,223,182,90,58,
  167,118,103,58,134,215,99,58,251,195,101,58,
  39,251,93,58,238,243,101,58,166,246,102,58,
  81,39,101,58,1,156,98,58,139,20,97,58,
  152,136,98,58,18,0,0,0,116,102,108,46,
  112,115,101,117,100,111,95,113,99,111,110,115,
  116,51,0,0,2,0,0,0,32,0,0,0,
  88,2,0,0,222,252,255,255,0,0,0,1,
  20,0,0,0,164,1,0,0,7,0,0,0,
  0,0,0,2,176,1,0,0,92,252,255,255,
  8,0,0,0,8,1,0,0,32,0,0,0,
  0,0,0,0,0,0,0,0,0,0,0,0,
  0,0,0,0,0,0,0,0,0,0,0,0,
  0,0,0,0,0,0,0,0,0,0,0,0,
  0,0,0,0,0,0,0,0,0,0,0,0,
  0,0,0,0,0,0,0,0,0,0,0,0,
  0,0,0,0,0,0,0,0,0,0,0,0,
  0,0,0,0,0,0,0,0,0,0,0,0,
  0,0,0,0,0,0,0,0,0,0,0,0,
  0,0,0,0,0,0,0,0,0,0,0,0,
  0,0,0,0,0,0,0,0,0,0,0,0,
  0,0,0,0,0,0,0,0,0,0,0,0,
  0,0,0,0,0,0,0,0,0,0,0,0,
  0,0,0,0,0,0,0,0,0,0,0,0,
  0,0,0,0,0,0,0,0,0,0,0,0,
  0,0,0,0,0,0,0,0,0,0,0,0,
  0,0,0,0,0,0,0,0,0,0,0,0,
  0,0,0,0,0,0,0,0,0,0,0,0,
  0,0,0,0,0,0,0,0,0,0,0,0,
  0,0,0,0,0,0,0,0,0,0,0,0,
  0,0,0,0,0,0,0,0,0,0,0,0,
  0,0,0,0,0,0,0,0,0,0,0,0,
  0,0,0,0,32,0,0,0,55,50,113,59,
  204,224,108,59,114,199,111,59,215,111,117,59,
  194,12,115,59,128,27,112,59,183,234,112,59,
  207,102,117,59,33,48,106,59,90,60,115,59,
  176,250,118,59,220,24,121,59,118,163,117,59,
  154,1,121,59,189,170,120,59,23,68,122,59,
  67,65,108,59,226,24,119,59,189,39,120,59,
  198,70,115,59,160,162,112,59,194,26,107,59,
  32,207,120,59,132,234,116,59,225,251,118,59,
  182,157,110,59,108,47,119,59,135,69,120,59,
  121,83,118,59,90,151,115,59,142,242,113,59,
  125,130,115,59,18,0,0,0,116,102,108,46,
  112,115,101,117,100,111,95,113,99,111,110,115,
  116,50,0,0,1,0,0,0,32,0,0,0,
  174,254,255,255,0,0,0,1,20,0,0,0,
  64,0,0,0,6,0,0,0,0,0,0,9,
  76,0,0,0,44,254,255,255,8,0,0,0,
  28,0,0,0,2,0,0,0,0,0,0,0,
  0,0,0,0,0,0,0,0,0,0,0,0,
  0,0,0,0,2,0,0,0,104,106,81,59,
  215,210,81,59,18,0,0,0,116,102,108,46,
  112,115,101,117,100,111,95,113,99,111,110,115,
  116,49,0,0,2,0,0,0,2,0,0,0,
  32,0,0,0,30,255,255,255,0,0,0,1,
  20,0,0,0,64,0,0,0,5,0,0,0,
  0,0,0,2,76,0,0,0,156,254,255,255,
  8,0,0,0,28,0,0,0,2,0,0,0,
  0,0,0,0,0,0,0,0,0,0,0,0,
  0,0,0,0,0,0,0,0,2,0,0,0,
  228,226,136,59,40,39,137,59,17,0,0,0,
  116,102,108,46,112,115,101,117,100,111,95,113,
  99,111,110,115,116,0,0,0,1,0,0,0,
  2,0,0,0,138,255,255,255,0,0,0,1,
  20,0,0,0,20,0,0,0,4,0,0,0,
  0,0,0,2,28,0,0,0,116,255,255,255,
  15,0,0,0,97,114,105,116,104,46,99,111,
  110,115,116,97,110,116,50,0,0,0,0,0,
  194,255,255,255,0,0,0,1,20,0,0,0,
  20,0,0,0,3,0,0,0,0,0,0,2,
  28,0,0,0,172,255,255,255,15,0,0,0,
  97,114,105,116,104,46,99,111,110,115,116,97,
  110,116,49,0,1,0,0,0,1,0,0,0,
  0,0,22,0,28,0,24,0,23,0,16,0,
  12,0,8,0,0,0,0,0,0,0,7,0,
  22,0,0,0,0,0,0,1,24,0,0,0,
  24,0,0,0,2,0,0,0,0,0,0,2,
  32,0,0,0,4,0,4,0,4,0,0,0,
  14,0,0,0,97,114,105,116,104,46,99,111,
  110,115,116,97,110,116,0,0,1,0,0,0,
  1,0,0,0,0,0,22,0,32,0,28,0,
  27,0,20,0,16,0,12,0,0,0,0,0,
  8,0,7,0,22,0,0,0,0,0,0,1,
  24,0,0,0,48,0,0,0,80,0,0,0,
  1,0,0,0,0,0,0,9,100,0,0,0,
  3,0,0,0,255,255,255,255,100,0,0,0,
  6,0,0,0,12,0,12,0,0,0,0,0,
  8,0,4,0,12,0,0,0,8,0,0,0,
  20,0,0,0,1,0,0,0,0,0,0,0,
  0,0,0,0,0,0,0,0,1,0,0,0,
  152,151,137,64,24,0,0,0,115,101,114,118,
  105,110,103,95,100,101,102,97,117,108,116,95,
  119,105,110,100,111,119,58,48,0,0,0,0,
  3,0,0,0,1,0,0,0,100,0,0,0,
  6,0,0,0,6,0,0,0,116,0,0,0,
  88,0,0,0,72,0,0,0,56,0,0,0,
  36,0,0,0,4,0,0,0,240,255,255,255,
  25,0,0,0,2,0,0,0,0,0,0,25,
  12,0,16,0,15,0,0,0,8,0,4,0,
  12,0,0,0,9,0,0,0,4,0,0,0,
  0,0,0,9,220,255,255,255,22,0,0,0,
  0,0,0,22,232,255,255,255,83,0,0,0,
  0,0,0,83,244,255,255,255,45,0,0,0,
  0,0,0,45,12,0,12,0,11,0,0,0,
  0,0,4,0,12,0,0,0,77,0,0,0,
  0,0,0,77
};
extern const unsigned int g_gesture_model_data_len = 23104;
