#include <cstddef>
#include <cstdint>

const unsigned char g_gesture_model_data[] = {
  28,0,0,0,84,70,76,51,20,0,32,0,
  28,0,24,0,20,0,16,0,12,0,0,0,
  8,0,4,0,20,0,0,0,28,0,0,0,
  144,0,0,0,232,0,0,0,200,77,0,0,
  216,77,0,0,44,83,0,0,3,0,0,0,
  1,0,0,0,16,0,0,0,0,0,10,0,
  16,0,12,0,8,0,4,0,10,0,0,0,
  12,0,0,0,28,0,0,0,60,0,0,0,
  15,0,0,0,115,101,114,118,105,110,103,95,
  100,101,102,97,117,108,116,0,1,0,0,0,
  4,0,0,0,152,255,255,255,8,0,0,0,
  4,0,0,0,8,0,0,0,111,117,116,112,
  117,116,95,48,0,0,0,0,1,0,0,0,
  4,0,0,0,206,178,255,255,4,0,0,0,
  6,0,0,0,119,105,110,100,111,119,0,0,
  2,0,0,0,52,0,0,0,4,0,0,0,
  220,255,255,255,11,0,0,0,4,0,0,0,
  19,0,0,0,67,79,78,86,69,82,83,73,
  79,78,95,77,69,84,65,68,65,84,65,0,
  8,0,12,0,8,0,4,0,8,0,0,0,
  10,0,0,0,4,0,0,0,19,0,0,0,
  109,105,110,95,114,117,110,116,105,109,101,95,
  118,101,114,115,105,111,110,0,12,0,0,0,
  220,76,0,0,212,76,0,0,188,76,0,0,
  156,76,0,0,76,76,0,0,188,75,0,0,
  172,0,0,0,164,0,0,0,156,0,0,0,
  148,0,0,0,116,0,0,0,4,0,0,0,
  114,179,255,255,4,0,0,0,96,0,0,0,
  12,0,0,0,8,0,14,0,8,0,4,0,
  8,0,0,0,16,0,0,0,40,0,0,0,
  0,0,6,0,8,0,4,0,6,0,0,0,
  4,0,0,0,1,0,0,0,235,3,0,0,
  12,0,24,0,20,0,16,0,12,0,4,0,
  12,0,0,0,57,71,33,31,213,58,200,245,
  2,0,0,0,2,0,0,0,4,0,0,0,
  6,0,0,0,50,46,50,48,46,48,0,0,
  222,179,255,255,4,0,0,0,16,0,0,0,
  49,46,49,52,46,48,0,0,0,0,0,0,
  0,0,0,0,52,175,255,255,56,175,255,255,
  60,175,255,255,6,180,255,255,4,0,0,0,
  0,75,0,0,10,141,167,194,6,167,25,4,
  75,172,41,72,12,68,154,40,231,181,88,17,
  160,239,221,39,230,7,57,47,116,60,246,211,
  25,20,156,210,36,234,53,55,35,183,100,54,
  222,246,220,1,86,76,40,77,34,70,87,254,
  229,75,21,193,19,41,177,248,72,235,162,86,
  196,106,100,185,153,183,86,177,62,13,37,225,
  110,233,163,28,12,98,162,251,42,17,81,253,
  28,13,250,0,151,18,162,203,51,175,42,112,
  214,198,95,174,52,228,31,13,73,233,150,186,
  174,61,14,198,25,64,35,180,69,117,155,18,
  174,35,62,247,254,65,74,151,175,255,213,207,
  204,13,78,214,237,177,113,154,99,9,99,67,
  170,199,252,255,213,86,8,253,95,50,151,143,
  169,41,170,51,72,68,53,92,20,15,234,72,
  240,178,227,165,250,42,221,214,207,35,166,98,
  253,187,29,155,146,180,34,204,86,43,229,75,
  64,137,240,91,97,223,58,88,155,245,18,13,
  151,133,157,57,31,148,190,244,16,98,45,147,
  165,138,189,54,243,32,199,166,35,203,76,177,
  96,76,184,221,61,72,228,199,5,177,169,86,
  172,216,54,195,87,9,250,30,65,169,253,35,
  178,246,54,100,153,46,15,214,187,164,87,74,
  164,195,14,162,231,59,34,40,163,31,95,217,
  84,8,98,147,68,143,105,237,200,224,29,183,
  227,41,168,30,162,168,81,49,173,154,42,236,
  195,60,187,181,76,155,205,210,184,145,55,237,
  37,201,34,61,174,103,187,32,192,99,186,222,
  153,172,151,214,74,19,239,178,183,40,215,41,
  220,203,44,149,237,211,4,216,154,78,205,60,
  33,106,174,234,218,251,241,98,163,231,210,175,
  3,50,180,74,225,235,25,45,37,23,39,30,
  187,161,249,71,94,217,86,103,119,175,243,13,
  91,8,8,225,164,217,200,27,166,61,44,231,
  5,76,243,43,19,155,155,251,189,23,50,177,
  160,185,217,70,170,1,159,117,66,1,164,43,
  46,39,29,24,163,237,163,109,15,198,175,95,
  75,234,53,34,243,186,31,31,163,192,18,185,
  204,15,12,173,177,2,194,19,2,28,165,253,
  166,160,189,235,39,1,21,190,204,202,54,24,
  72,169,70,238,24,20,28,21,43,250,9,13,
  3,82,87,81,208,157,98,152,96,218,218,27,
  161,152,34,77,173,250,3,9,157,105,16,17,
  47,32,149,212,59,12,213,122,246,40,154,234,
  6,21,24,98,20,170,248,181,11,182,195,252,
  43,154,249,5,223,179,0,6,197,250,19,195,
  99,185,73,74,207,196,55,215,27,228,93,89,
  80,93,27,219,153,165,224,18,93,176,83,59,
  97,39,143,43,6,84,81,238,51,86,148,33,
  81,85,252,171,80,217,77,71,12,253,170,157,
  247,22,35,207,169,229,234,202,214,224,165,157,
  186,21,6,140,228,46,175,229,118,221,229,15,
  81,78,209,200,197,199,35,63,14,163,10,0,
  100,226,2,247,179,199,167,184,203,188,101,95,
  208,173,163,58,53,217,155,85,50,13,175,65,
  24,230,35,81,21,14,30,138,201,68,103,62,
  166,233,77,103,42,140,162,215,195,28,177,61,
  84,24,164,248,5,55,153,177,66,50,1,59,
  159,190,152,216,120,51,16,3,213,66,173,165,
  210,249,44,197,25,137,138,178,140,201,43,242,
  63,56,177,166,226,56,54,48,51,99,75,77,
  225,135,93,248,15,62,65,190,191,251,60,232,
  20,197,171,40,178,17,60,204,12,226,35,228,
  229,198,209,220,49,95,66,204,248,76,228,169,
  143,29,4,248,97,213,52,227,156,162,159,162,
  49,226,56,65,84,217,245,238,46,146,113,51,
  88,202,174,95,229,55,236,105,92,34,200,57,
  249,237,220,44,67,238,238,33,50,154,2,184,
  60,16,111,174,212,174,145,184,80,8,97,228,
  86,74,45,111,168,203,47,174,55,43,84,89,
  254,6,244,99,187,33,163,48,102,187,32,11,
  163,181,190,35,15,59,18,18,95,19,63,151,
  153,97,238,209,157,44,39,219,105,191,48,166,
  99,27,61,182,71,81,40,70,222,95,119,159,
  214,224,217,108,23,151,228,15,95,53,241,78,
  45,82,1,61,8,54,232,107,38,192,254,71,
  32,244,48,166,194,213,72,7,195,59,225,15,
  218,209,151,57,91,248,231,93,55,102,255,34,
  168,42,64,216,13,13,10,229,129,214,185,211,
  99,94,181,72,121,251,185,155,168,193,19,153,
  21,238,88,56,15,244,9,193,152,79,76,193,
  144,155,160,24,244,80,189,71,12,56,95,8,
  71,137,72,77,119,255,53,208,100,106,238,155,
  208,221,66,53,21,167,151,15,238,251,218,230,
  53,143,166,23,8,172,63,233,93,201,114,61,
  78,219,57,231,94,91,142,45,26,230,114,186,
  178,169,79,111,197,240,183,215,95,254,233,52,
  181,17,253,236,171,198,86,237,17,223,252,137,
  4,237,25,153,74,146,64,10,221,167,196,68,
  66,84,242,172,172,142,152,58,37,83,9,212,
  49,150,5,155,19,190,223,21,197,178,227,204,
  16,31,148,98,86,26,206,58,54,77,6,204,
  79,181,93,225,24,23,237,9,177,153,85,84,
  195,182,50,174,158,162,203,194,57,81,48,149,
  67,144,95,75,28,169,79,143,55,21,58,175,
  186,94,202,205,114,188,167,134,187,56,185,235,
  235,220,51,18,110,200,207,232,52,65,217,36,
  197,50,89,6,229,249,189,165,48,253,47,202,
  173,136,23,214,226,16,11,26,189,204,239,9,
  221,155,1,69,181,154,195,43,71,42,47,218,
  154,45,140,61,21,52,61,252,191,8,95,182,
  245,206,34,175,153,240,242,0,187,21,1,240,
  106,207,36,188,53,23,161,27,99,253,10,208,
  219,65,182,45,55,240,210,75,212,97,49,22,
  88,203,194,65,224,247,22,191,137,79,164,45,
  25,196,12,5,248,162,206,246,27,63,18,222,
  245,7,203,87,28,199,250,42,226,156,173,216,
  249,171,22,193,188,243,23,81,161,18,149,187,
  249,85,161,204,249,32,207,184,7,91,218,68,
  15,13,44,163,208,106,18,90,229,16,54,213,
  210,183,7,73,171,24,214,10,113,148,8,81,
  63,82,100,215,155,27,82,254,187,160,32,50,
  109,19,232,36,219,76,53,243,214,84,179,5,
  103,169,92,206,14,73,226,158,28,163,146,178,
  120,190,58,92,160,228,13,22,170,172,208,253,
  208,165,34,205,229,213,169,225,215,6,73,1,
  237,3,7,177,35,185,33,170,238,72,181,82,
  97,205,66,244,73,75,253,62,151,89,32,206,
  25,62,142,107,49,35,96,135,61,165,73,210,
  29,42,140,194,216,209,176,2,31,95,243,82,
  72,255,246,250,199,85,215,213,28,208,85,192,
  41,50,227,17,246,235,43,39,224,243,40,107,
  14,20,164,68,161,14,180,35,42,40,249,166,
  107,83,26,99,211,94,54,147,83,142,5,17,
  88,7,53,49,38,33,14,92,253,199,48,18,
  158,35,161,158,250,160,3,1,40,220,190,20,
  54,194,246,174,66,180,200,91,247,61,239,42,
  32,66,32,250,93,0,249,76,202,70,250,47,
  6,165,183,167,10,246,176,239,194,220,153,222,
  116,252,31,234,4,252,23,91,57,111,2,181,
  165,161,174,76,151,56,0,254,14,7,46,252,
  99,31,8,92,136,98,211,240,63,178,160,62,
  178,219,249,233,60,107,2,113,183,201,237,192,
  244,39,1,147,186,84,31,18,213,171,63,182,
  172,177,195,212,24,48,113,222,243,43,230,201,
  3,196,85,197,189,117,220,70,212,76,160,214,
  174,98,66,146,66,84,170,9,53,100,8,36,
  222,47,188,76,143,45,48,31,251,202,208,174,
  197,250,245,17,227,245,9,84,214,164,140,13,
  44,212,207,224,21,57,23,253,233,88,148,167,
  195,187,186,230,248,165,88,216,84,102,52,254,
  173,77,61,79,183,199,205,180,229,27,68,102,
  12,176,73,86,241,52,1,14,218,68,2,96,
  164,0,108,214,135,10,99,174,201,106,48,44,
  185,67,9,7,231,242,93,243,216,17,20,89,
  66,242,210,108,249,53,106,71,248,225,193,117,
  17,90,211,178,215,56,236,236,81,84,220,44,
  253,90,53,22,50,115,31,170,40,102,85,118,
  164,92,154,76,162,94,37,76,78,75,229,164,
  80,214,234,116,166,57,236,121,85,200,158,254,
  163,206,219,6,105,97,197,211,55,54,243,161,
  210,92,51,53,251,132,166,177,50,207,166,26,
  12,229,250,8,71,84,189,214,29,48,94,255,
  31,161,176,179,44,186,29,23,209,214,52,52,
  181,47,246,46,249,251,3,215,38,230,56,180,
  50,0,199,224,46,204,201,213,41,17,210,164,
  32,132,80,205,108,48,65,144,189,63,69,69,
  65,50,94,188,199,47,179,174,55,59,7,254,
  21,218,166,195,35,28,247,24,168,38,186,204,
  58,4,82,117,227,210,13,212,43,54,59,68,
  211,172,205,178,11,97,224,171,224,224,236,31,
  78,185,149,187,2,135,153,236,197,32,248,74,
  136,8,66,215,167,207,135,31,50,158,223,158,
  18,39,16,177,112,251,192,25,76,206,206,143,
  216,43,249,78,113,83,210,105,72,198,254,254,
  194,91,238,252,90,179,81,43,208,233,20,38,
  215,44,198,19,204,186,32,18,90,17,7,183,
  75,31,83,68,65,185,204,43,25,88,81,24,
  180,70,124,71,214,214,235,49,177,176,203,92,
  160,3,200,77,112,70,77,90,192,251,0,42,
  8,108,89,154,246,92,232,209,246,88,0,30,
  85,102,66,105,176,211,176,222,88,69,171,149,
  249,47,164,211,81,253,0,39,67,243,232,155,
  240,181,19,54,96,188,208,189,76,197,237,47,
  244,224,89,149,122,247,193,233,181,182,6,214,
  214,59,80,242,169,234,235,63,80,1,186,177,
  7,34,31,16,25,85,6,220,210,50,103,37,
  34,152,31,75,176,31,248,228,173,174,104,208,
  56,173,250,21,213,252,167,20,203,44,71,224,
  203,148,193,77,55,69,176,171,195,190,69,247,
  208,44,238,224,19,34,72,137,86,193,176,73,
  87,192,81,229,122,227,65,34,149,205,229,147,
  88,6,231,108,105,186,60,6,37,51,199,50,
  36,157,234,222,241,182,10,21,154,242,73,247,
  180,85,200,32,197,178,66,226,85,25,163,90,
  82,164,248,103,170,21,164,224,56,243,119,32,
  215,15,155,117,180,143,139,245,35,12,165,180,
  237,18,242,244,97,15,14,241,167,52,105,234,
  175,95,18,195,254,159,53,236,64,5,233,170,
  168,100,177,79,187,1,67,199,63,82,4,196,
  163,71,22,3,35,23,94,35,147,201,19,3,
  167,198,204,206,190,214,233,153,65,90,205,228,
  67,193,252,244,175,53,160,144,241,252,58,215,
  224,94,160,166,77,14,214,22,36,188,220,51,
  241,209,2,43,118,72,178,177,189,235,241,93,
  174,74,215,240,118,65,188,202,140,80,8,231,
  19,140,67,78,246,203,137,165,22,143,32,17,
  145,205,240,62,181,162,159,73,51,101,96,160,
  26,171,50,182,59,154,205,216,175,73,235,151,
  221,30,44,205,176,187,175,42,80,61,112,167,
  229,52,218,80,95,89,12,48,154,233,239,109,
  216,20,207,51,245,3,216,85,221,204,2,243,
  83,71,9,16,6,33,163,107,57,254,156,28,
  57,27,245,251,238,25,172,11,151,61,154,212,
  77,8,51,148,155,193,117,247,57,237,86,85,
  219,223,17,5,65,228,56,62,158,220,151,60,
  204,237,247,29,63,21,120,16,65,230,52,235,
  194,189,218,14,252,35,5,193,26,165,47,120,
  223,193,245,28,145,34,10,28,61,60,153,56,
  55,169,17,19,152,212,10,227,192,104,150,196,
  21,187,186,241,179,45,79,205,253,53,147,28,
  234,64,56,172,220,232,183,88,252,162,237,36,
  182,26,209,119,209,73,21,81,61,66,245,49,
  250,73,250,87,180,1,52,165,84,184,229,64,
  40,96,80,231,248,15,160,6,73,115,249,22,
  193,7,197,73,177,67,201,11,150,206,227,213,
  95,240,225,37,9,66,186,12,137,34,184,234,
  64,134,62,39,82,234,50,228,189,248,50,92,
  70,25,14,32,179,232,42,182,238,251,245,160,
  19,229,202,191,77,193,29,81,0,96,249,115,
  176,13,201,83,61,62,94,218,224,163,171,3,
  2,72,244,192,63,113,64,216,52,91,80,173,
  19,41,62,193,89,222,255,92,162,187,206,75,
  210,57,222,91,93,32,36,44,210,62,6,237,
  42,5,204,178,234,87,64,211,227,33,199,81,
  52,208,148,35,214,162,225,248,39,171,187,175,
  112,40,33,164,20,43,67,253,234,185,143,108,
  57,80,171,149,193,185,100,201,11,175,204,35,
  64,227,225,206,226,162,31,252,241,159,38,217,
  217,109,205,149,218,212,20,196,111,58,189,220,
  93,68,91,183,64,251,164,171,76,67,214,57,
  159,60,191,20,204,233,6,1,227,174,205,196,
  74,206,162,95,48,215,4,56,240,252,191,110,
  37,68,187,18,215,8,97,225,1,80,80,15,
  91,83,26,154,171,52,172,226,223,142,218,2,
  185,103,214,246,212,237,95,249,42,170,147,239,
  232,214,219,33,96,11,13,163,44,78,251,70,
  82,97,87,224,83,98,213,96,19,229,140,178,
  50,59,170,162,180,38,7,74,29,124,220,161,
  19,56,49,91,139,254,223,54,62,49,157,59,
  103,58,93,219,85,253,253,7,201,47,223,74,
  189,242,163,69,179,13,72,103,196,202,206,30,
  193,228,205,186,15,220,21,4,115,194,249,2,
  195,182,69,67,94,68,231,51,35,239,158,50,
  11,17,190,194,135,73,196,239,23,225,46,227,
  6,88,15,106,227,179,97,93,92,194,239,96,
  212,189,15,21,137,99,83,80,219,62,16,1,
  79,254,53,188,137,51,254,233,169,109,56,5,
  178,251,105,91,216,43,104,79,179,234,213,17,
  237,82,38,217,67,180,46,200,235,71,239,251,
  52,13,178,15,151,231,97,21,251,71,215,97,
  216,233,218,206,224,165,160,192,252,176,179,226,
  33,27,233,180,201,223,71,26,65,247,149,153,
  159,7,73,46,42,197,89,206,213,87,83,240,
  255,72,242,62,66,65,86,214,157,170,246,218,
  96,26,46,15,4,149,158,84,93,17,81,249,
  232,228,219,51,39,60,50,19,235,238,39,37,
  70,236,139,225,74,49,184,74,246,233,240,79,
  85,66,209,172,57,187,252,235,40,66,168,93,
  49,66,241,248,172,201,231,232,89,217,176,62,
  158,94,227,254,240,164,49,195,61,70,48,190,
  243,254,9,148,179,111,10,66,183,168,239,175,
  99,125,28,2,216,29,227,23,57,53,222,35,
  204,31,227,10,239,47,228,83,91,212,240,65,
  91,179,249,53,90,0,192,108,21,76,6,172,
  87,197,212,215,169,173,64,20,213,47,157,10,
  108,140,32,74,154,84,179,28,38,32,24,157,
  218,7,167,22,39,95,237,34,189,51,251,117,
  198,202,253,86,9,35,176,228,171,35,251,15,
  88,81,196,92,224,244,185,18,119,64,12,182,
  173,31,220,218,245,203,163,242,64,223,158,246,
  3,0,86,0,229,7,221,249,197,244,5,189,
  111,250,218,156,87,50,203,229,241,166,0,164,
  59,1,104,174,4,29,190,200,169,168,212,203,
  35,252,187,62,0,22,6,98,102,100,95,71,
  201,85,59,17,244,120,235,240,107,198,191,166,
  21,179,253,50,89,4,180,186,53,111,156,4,
  238,247,19,50,139,200,13,3,189,226,252,241,
  239,92,7,20,173,243,110,174,254,71,193,74,
  84,240,164,238,213,194,197,102,103,173,14,188,
  41,85,153,103,20,36,186,251,238,183,242,207,
  204,254,86,247,193,89,99,97,101,78,205,233,
  248,39,205,236,147,254,164,90,173,63,82,40,
  248,75,103,226,184,93,170,234,91,185,207,39,
  18,89,48,74,254,181,158,119,63,12,194,227,
  215,242,204,220,203,183,216,2,65,242,210,109,
  31,247,32,223,79,214,45,163,26,163,144,99,
  74,199,169,61,226,108,164,238,230,199,25,111,
  13,30,238,38,55,171,10,66,12,236,193,239,
  70,216,199,207,21,98,215,55,57,241,253,168,
  209,12,56,106,248,202,30,11,80,238,195,192,
  75,79,157,21,252,219,101,164,162,153,225,18,
  104,243,181,65,74,56,217,4,88,246,207,189,
  246,91,25,220,215,49,101,202,58,183,12,71,
  88,254,250,191,86,235,114,201,191,71,7,202,
  52,50,65,95,254,47,95,11,236,16,71,190,
  245,116,193,52,226,189,231,82,62,159,62,186,
  237,7,205,230,220,200,13,214,75,234,166,229,
  52,201,220,234,94,213,4,235,210,50,5,20,
  217,49,218,140,11,98,172,161,204,247,51,7,
  166,172,65,79,50,174,154,85,103,219,213,164,
  202,67,32,251,106,218,143,197,32,253,169,180,
  2,59,74,242,242,177,216,222,25,114,66,10,
  207,171,219,70,173,51,177,216,87,34,19,85,
  17,211,109,78,35,139,81,44,113,53,224,219,
  95,50,219,64,60,65,25,206,48,36,16,73,
  220,213,80,240,243,234,217,205,214,93,167,168,
  10,138,44,103,84,210,41,214,74,197,175,63,
  44,173,226,75,40,217,173,164,251,236,93,236,
  190,238,39,238,61,98,71,73,13,167,186,28,
  15,195,89,66,182,145,28,137,176,2,114,228,
  75,209,224,100,74,30,238,45,35,252,26,215,
  247,52,135,20,208,36,248,60,54,3,6,236,
  211,61,208,222,53,211,29,175,240,84,225,0,
  217,210,253,46,105,9,170,225,236,16,164,74,
  196,51,4,65,42,32,180,7,102,188,217,141,
  210,63,106,222,37,239,9,201,229,157,197,149,
  213,110,43,37,11,179,6,238,62,16,47,141,
  169,209,72,4,195,82,11,113,59,244,209,246,
  13,246,4,238,89,8,10,69,225,249,253,243,
  72,222,9,81,186,94,26,190,193,104,118,251,
  69,176,247,179,115,194,216,181,199,116,23,214,
  48,184,41,103,100,186,52,222,103,60,13,66,
  100,181,83,188,78,200,233,240,176,31,209,52,
  43,38,223,172,187,144,183,79,103,186,235,166,
  14,230,183,194,65,152,37,182,26,144,66,212,
  24,212,61,238,61,233,208,35,150,171,76,189,
  29,196,38,63,113,90,26,105,213,203,73,160,
  59,183,168,10,59,86,4,43,178,97,24,247,
  99,155,80,184,85,5,63,65,166,54,3,172,
  232,46,32,62,58,245,2,44,157,163,26,169,
  13,226,232,206,210,60,7,250,47,154,160,254,
  200,69,198,45,30,192,255,110,106,25,182,41,
  149,9,204,88,107,179,177,153,118,184,14,246,
  167,232,121,43,25,48,215,98,22,160,240,144,
  250,22,16,181,226,33,86,19,111,159,211,252,
  71,34,39,116,111,68,60,192,207,199,184,255,
  54,4,50,174,59,163,194,16,8,4,60,81,
  44,0,77,236,24,186,158,244,25,81,18,206,
  194,247,22,16,175,69,142,95,79,49,216,189,
  56,33,210,169,78,206,70,238,57,7,206,254,
  216,235,195,64,3,17,93,156,153,76,121,194,
  240,54,143,153,92,197,177,231,238,190,73,150,
  86,239,76,249,193,41,141,237,26,2,69,41,
  170,22,229,247,40,52,36,199,212,24,110,64,
  12,164,241,87,174,24,165,233,95,16,34,173,
  27,77,167,217,207,151,12,13,11,59,75,135,
  72,230,48,30,30,144,51,15,69,92,180,25,
  139,34,219,106,74,243,236,76,200,71,165,49,
  73,180,9,99,67,83,218,78,136,111,227,14,
  2,176,255,66,81,200,158,77,39,159,1,161,
  78,68,5,56,244,173,154,254,207,202,214,228,
  90,87,189,93,162,49,13,7,246,44,97,208,
  62,248,212,34,161,64,244,30,141,142,38,220,
  248,102,39,64,82,63,7,67,197,166,225,94,
  59,83,23,140,93,68,168,31,141,140,158,153,
  7,145,236,219,68,6,52,71,243,4,254,73,
  93,53,18,44,45,109,107,95,199,46,144,226,
  76,93,20,184,194,167,61,217,88,191,251,54,
  17,198,80,59,29,200,66,54,72,228,143,11,
  103,58,151,91,47,209,173,36,113,250,93,96,
  55,18,100,192,36,222,185,29,195,3,37,70,
  186,99,48,227,177,103,157,153,63,225,32,189,
  92,206,159,30,26,209,171,221,100,67,58,174,
  157,80,18,62,252,188,71,186,161,63,10,231,
  176,3,192,201,239,104,112,114,94,32,72,80,
  186,101,230,156,232,94,208,201,198,255,56,168,
  8,90,7,38,78,162,223,70,249,69,32,214,
  203,179,243,47,93,77,29,65,182,37,234,30,
  244,233,46,193,44,160,199,180,221,241,195,24,
  194,39,70,21,38,189,34,210,25,61,10,175,
  50,73,26,52,227,251,233,19,217,156,192,11,
  204,184,38,87,155,56,64,238,22,158,43,216,
  246,158,28,77,10,231,186,92,58,183,239,218,
  173,217,102,19,181,75,24,240,229,60,45,194,
  229,10,235,181,217,200,92,97,30,91,45,182,
  190,74,18,67,7,9,159,195,210,176,184,90,
  188,159,192,37,161,36,12,23,189,158,59,76,
  212,96,72,242,224,180,96,142,255,80,175,165,
  199,6,245,209,102,87,96,20,226,155,240,100,
  105,41,18,197,223,243,98,73,50,176,68,4,
  208,207,179,76,81,187,54,207,32,178,33,100,
  26,79,106,217,68,11,245,0,193,235,62,22,
  20,51,156,30,155,153,5,210,33,52,70,57,
  160,85,85,178,28,241,85,98,203,97,5,103,
  228,208,250,78,58,230,41,33,68,48,201,13,
  101,246,224,32,14,24,70,207,234,113,191,27,
  89,48,172,189,164,6,197,196,72,59,51,43,
  27,52,209,173,141,229,160,102,216,26,41,70,
  73,26,6,180,235,184,223,58,246,68,159,20,
  170,228,0,223,2,58,190,72,153,154,164,115,
  236,83,40,222,142,81,54,214,22,58,1,247,
  167,92,165,63,186,15,238,238,48,65,100,182,
  109,154,204,21,17,61,201,108,48,37,172,40,
  178,84,189,253,230,4,17,102,54,37,223,190,
  28,2,116,241,52,189,25,149,52,44,69,104,
  102,3,57,153,251,38,229,181,182,63,73,34,
  26,154,221,7,201,44,165,83,41,171,93,43,
  106,209,79,234,168,9,167,97,237,162,162,116,
  237,242,157,83,230,83,30,73,170,20,168,210,
  69,65,176,105,28,215,163,177,191,206,28,182,
  160,171,239,104,235,46,101,80,85,101,8,207,
  63,62,210,189,55,108,75,102,43,65,150,248,
  214,30,96,186,253,227,31,13,240,116,224,20,
  220,50,84,13,103,103,28,66,162,84,246,97,
  58,88,12,245,44,44,237,212,50,181,15,229,
  85,183,168,207,31,49,157,36,238,214,194,86,
  182,77,81,151,108,241,74,153,3,149,233,36,
  157,170,241,87,72,79,17,247,65,184,166,49,
  147,73,74,13,181,216,42,45,104,245,248,191,
  54,97,18,243,21,91,29,194,237,46,17,14,
  190,103,49,219,56,192,69,188,228,212,38,172,
  40,65,167,66,35,75,68,188,51,14,233,160,
  145,236,33,186,218,50,230,1,68,249,57,232,
  175,44,226,52,147,117,142,240,107,36,187,189,
  48,146,29,7,188,158,225,240,12,53,59,99,
  4,216,118,230,46,109,185,174,6,56,24,78,
  177,57,234,215,174,245,65,40,178,241,184,163,
  73,57,178,159,225,214,34,162,108,75,102,69,
  43,187,232,32,203,10,66,168,73,55,77,191,
  162,211,228,62,59,26,34,36,196,42,216,196,
  180,52,71,82,3,152,226,212,117,200,91,166,
  79,8,46,50,12,100,64,222,56,223,200,71,
  186,51,207,92,58,98,66,255,171,187,36,221,
  219,71,76,76,230,99,186,165,255,57,29,34,
  39,197,210,21,207,210,240,183,103,53,241,204,
  10,171,237,247,94,237,194,242,52,76,188,105,
  203,163,169,213,222,73,57,27,29,222,68,92,
  164,47,194,205,60,175,21,203,79,53,34,79,
  62,74,100,254,87,98,180,56,16,178,168,5,
  49,181,69,198,177,227,68,142,185,229,241,43,
  16,175,58,194,199,237,152,63,63,237,237,33,
  253,237,155,47,101,2,94,236,146,181,217,114,
  5,141,238,54,89,74,174,184,60,161,44,181,
  36,6,19,232,179,40,210,240,71,245,11,240,
  170,145,27,161,156,9,12,59,167,69,215,35,
  194,131,192,35,204,10,5,222,15,239,228,205,
  250,170,53,5,203,51,147,132,126,50,3,13,
  69,74,91,240,243,202,65,78,86,80,76,164,
  96,156,202,54,173,160,99,40,58,222,223,107,
  98,176,75,230,239,10,246,236,90,249,223,203,
  52,22,77,10,25,69,235,211,16,21,251,192,
  105,237,177,190,152,23,6,171,41,183,180,49,
  156,146,223,21,77,220,58,172,14,174,214,237,
  162,167,55,89,20,16,163,99,19,232,68,110,
  28,62,20,147,47,83,231,242,7,200,228,214,
  170,215,99,229,228,92,101,202,202,66,147,49,
  102,70,196,248,73,109,254,167,203,94,152,29,
  24,113,206,253,65,196,8,108,192,6,234,195,
  83,162,173,225,198,189,185,226,191,74,210,90,
  228,237,48,208,140,3,161,33,253,189,233,105,
  195,207,176,216,9,112,213,67,214,60,251,84,
  99,31,225,206,77,237,218,166,175,131,180,56,
  240,45,35,53,3,178,36,202,47,52,72,69,
  75,235,176,7,53,238,98,83,174,194,83,89,
  29,231,59,39,223,11,24,200,174,158,218,9,
  84,45,148,54,208,181,4,227,186,172,82,231,
  213,34,43,23,139,93,172,224,114,244,219,106,
  178,244,203,150,162,12,12,195,164,239,19,96,
  191,35,37,12,162,83,248,179,190,75,207,192,
  188,98,34,152,217,188,108,33,190,99,20,87,
  28,182,49,167,6,120,19,174,171,122,18,45,
  183,82,233,182,2,67,222,40,240,193,85,59,
  115,89,214,231,23,48,233,103,42,16,216,76,
  65,247,223,70,37,71,167,84,10,62,214,16,
  82,1,221,173,255,240,91,141,168,104,135,33,
  44,249,86,62,244,159,223,35,88,232,163,109,
  3,245,210,86,52,86,209,207,31,36,171,226,
  161,79,172,211,233,24,161,80,132,87,36,183,
  112,71,244,95,241,165,215,37,146,168,151,200,
  185,210,30,237,165,96,57,93,212,91,220,24,
  21,152,68,233,83,71,234,83,85,148,199,189,
  11,223,233,30,154,209,255,18,89,218,195,111,
  11,171,189,48,175,101,97,19,222,219,250,190,
  67,96,79,15,140,68,18,43,175,4,239,187,
  71,210,221,32,150,217,233,39,69,171,83,107,
  63,56,39,55,67,182,75,98,241,50,159,9,
  209,93,186,185,144,63,78,56,27,147,152,74,
  33,164,105,24,169,246,165,89,117,243,39,160,
  178,113,5,62,250,171,253,123,199,12,35,52,
  85,166,112,197,165,89,228,115,106,67,27,76,
  250,169,218,214,26,185,35,17,195,51,222,5,
  24,249,42,5,31,225,165,227,8,79,143,186,
  184,33,249,198,205,182,211,56,179,60,159,94,
  250,114,64,20,157,122,37,171,91,65,87,174,
  73,188,236,226,237,213,244,159,46,254,198,195,
  88,62,15,241,44,253,57,237,223,27,138,66,
  41,244,65,153,161,46,43,15,246,77,38,12,
  165,29,183,1,223,109,50,41,118,206,173,199,
  194,188,111,56,182,226,93,86,27,216,91,221,
  57,20,255,229,181,57,48,175,245,116,241,14,
  27,43,17,8,56,78,41,75,57,175,148,242,
  75,156,64,47,242,82,249,185,16,80,144,13,
  173,183,164,12,146,80,21,255,16,56,21,119,
  205,78,159,110,245,215,197,179,36,39,199,45,
  254,40,207,23,217,160,111,234,216,174,199,195,
  79,160,244,78,184,8,200,7,206,208,213,6,
  41,199,214,48,230,118,27,181,217,234,13,161,
  186,43,164,235,189,56,166,20,70,168,177,85,
  214,14,71,65,34,215,50,243,183,76,27,194,
  82,54,192,217,94,30,93,55,99,162,64,235,
  80,229,198,172,246,203,225,204,60,189,88,66,
  21,242,132,93,69,54,104,25,48,94,185,204,
  246,58,91,60,148,168,162,40,31,238,57,61,
  24,220,91,212,75,188,188,171,184,182,165,99,
  116,69,205,187,185,84,185,16,251,91,41,216,
  215,103,40,54,62,158,97,203,219,77,197,230,
  17,28,99,167,95,24,47,67,201,67,75,0,
  226,60,238,197,159,21,227,241,171,148,209,19,
  61,168,208,241,206,92,119,59,88,102,225,219,
  109,236,81,158,10,77,15,87,225,49,174,166,
  75,20,253,250,168,24,177,169,164,218,172,199,
  96,178,23,156,249,159,206,241,231,38,83,9,
  15,84,72,174,195,27,205,199,24,171,94,114,
  60,237,81,177,40,9,243,182,29,157,17,8,
  53,180,173,99,244,3,89,0,32,237,15,25,
  98,68,27,21,209,109,224,186,6,178,226,30,
  69,144,224,62,26,211,40,93,4,188,22,86,
  94,255,136,69,199,248,207,237,46,254,23,124,
  170,251,250,247,46,194,155,72,241,18,96,172,
  68,157,24,9,194,217,223,86,153,254,160,167,
  180,82,212,248,8,235,65,206,228,224,34,104,
  34,165,58,150,91,205,105,82,156,59,43,119,
  7,38,247,92,207,23,246,247,99,201,148,94,
  23,214,31,176,206,43,251,5,172,106,200,105,
  93,189,15,245,0,243,82,26,29,225,22,6,
  180,25,94,61,162,223,165,23,55,251,61,183,
  73,10,116,158,134,10,25,159,237,12,46,242,
  69,35,221,204,9,32,225,169,226,87,192,194,
  36,18,179,232,181,14,104,213,162,51,223,12,
  82,118,247,69,68,16,199,107,52,168,211,38,
  58,221,195,86,251,191,211,2,162,237,97,28,
  243,72,196,173,70,87,80,105,205,166,185,15,
  191,44,87,55,23,5,0,51,246,252,237,255,
  176,178,236,138,137,120,249,105,47,172,77,15,
  164,78,9,249,30,86,107,118,3,165,171,59,
  113,202,50,55,39,239,30,76,22,12,251,172,
  54,216,181,222,53,16,208,164,162,54,76,122,
  200,27,36,51,90,36,79,178,58,48,58,204,
  180,201,95,83,196,250,39,11,105,199,15,23,
  66,177,195,159,95,242,68,177,189,194,207,173,
  40,117,191,175,6,15,218,86,244,5,166,191,
  236,189,9,234,71,100,73,59,228,81,154,90,
  242,221,90,92,223,4,84,104,161,154,202,165,
  78,84,2,201,221,80,33,191,182,17,36,204,
  45,85,219,38,230,187,206,88,87,111,186,185,
  63,158,107,65,46,52,196,43,228,110,196,199,
  218,215,98,202,76,81,50,96,71,83,165,97,
  226,172,28,190,60,250,90,210,36,45,78,92,
  90,31,77,16,94,229,196,171,200,204,161,117,
  3,98,91,43,65,96,62,65,37,66,100,73,
  220,253,208,248,215,9,171,44,161,77,85,251,
  160,105,153,24,36,173,14,231,145,8,45,3,
  156,0,46,147,205,63,99,78,3,39,164,237,
  84,213,168,222,232,229,155,89,167,3,236,8,
  107,76,36,231,197,76,43,16,199,8,181,235,
  246,7,216,205,73,175,251,53,141,197,226,60,
  2,163,208,80,236,83,61,98,31,7,46,237,
  36,225,246,103,77,207,195,67,251,57,242,18,
  41,240,255,192,23,6,180,23,35,98,47,203,
  49,217,108,153,12,93,78,9,1,200,145,216,
  72,22,197,86,146,174,52,82,10,229,53,81,
  176,205,160,158,9,95,42,161,53,40,31,227,
  179,62,255,69,160,231,202,244,209,10,204,118,
  79,254,7,174,170,119,28,68,190,72,76,91,
  213,1,238,217,72,5,168,234,206,173,197,32,
  212,36,72,155,18,96,244,148,245,251,204,18,
  158,209,45,181,202,97,111,21,3,158,253,234,
  214,213,194,181,237,25,61,11,68,99,217,92,
  231,193,2,105,215,213,228,54,210,60,14,40,
  239,40,81,185,0,89,215,248,183,10,30,47,
  83,153,234,166,183,102,36,246,95,183,38,94,
  200,1,51,255,136,175,113,10,33,177,151,228,
  205,214,206,214,56,252,96,227,230,1,172,15,
  114,208,172,102,175,112,182,198,171,18,74,251,
  70,222,55,92,4,19,215,246,76,24,220,54,
  203,38,10,240,67,108,213,159,196,166,148,254,
  159,201,23,12,225,57,2,152,7,72,58,24,
  184,49,66,163,186,57,239,93,16,67,50,234,
  30,90,25,30,173,35,96,222,198,203,32,29,
  90,121,79,20,18,98,255,190,67,183,75,72,
  157,186,91,19,39,216,217,19,35,171,200,102,
  162,195,45,53,54,116,10,197,200,15,248,253,
  185,232,230,10,99,84,61,70,33,4,2,21,
  50,203,74,71,70,9,212,63,228,169,201,34,
  207,249,71,97,194,212,226,204,6,173,228,221,
  166,181,169,175,66,115,98,66,12,228,145,246,
  93,50,97,183,84,206,224,68,189,58,91,166,
  221,108,39,244,174,239,200,74,67,155,83,117,
  109,143,194,161,71,209,190,9,247,14,58,57,
  26,153,164,90,97,167,209,210,103,148,206,50,
  186,24,216,36,235,21,56,43,17,170,73,191,
  221,219,45,244,30,162,88,231,200,52,170,13,
  17,165,201,198,194,225,237,108,94,253,252,234,
  2,187,26,222,73,238,183,237,216,30,26,63,
  41,253,84,188,83,181,194,2,228,222,215,23,
  177,198,56,21,200,235,113,240,244,5,241,21,
  225,165,63,64,251,224,179,1,169,180,146,110,
  6,107,64,7,179,209,91,105,57,169,2,100,
  96,193,251,78,161,174,169,26,11,203,30,80,
  34,107,29,60,210,235,235,249,255,149,71,210,
  50,198,60,209,23,146,21,242,188,193,242,155,
  28,66,8,158,24,216,213,226,7,254,113,193,
  238,248,195,87,12,77,8,79,205,35,206,241,
  253,250,172,157,74,55,139,233,177,164,65,3,
  94,214,62,156,247,136,82,21,233,25,171,65,
  254,239,39,104,198,248,48,216,236,245,107,212,
  193,9,160,37,68,249,0,238,156,238,241,195,
  151,183,225,199,113,186,180,187,151,175,236,150,
  50,24,200,238,68,23,151,184,13,159,204,202,
  7,185,42,67,179,95,17,173,224,13,186,75,
  155,35,218,243,23,56,150,149,206,186,228,29,
  27,245,205,201,236,52,231,8,81,158,70,56,
  172,60,3,90,11,28,139,44,26,187,11,211,
  172,250,229,58,176,46,240,91,164,88,89,60,
  40,209,53,51,93,77,83,67,1,208,12,215,
  13,159,7,74,101,86,45,6,216,2,200,64,
  18,116,67,239,13,147,54,35,100,37,215,228,
  221,55,58,242,195,232,183,215,121,145,22,218,
  244,97,247,40,109,83,200,24,123,41,33,77,
  136,42,234,55,205,155,44,166,117,13,190,27,
  8,201,33,104,38,178,212,44,120,18,18,227,
  21,191,184,114,248,229,219,18,6,192,51,178,
  204,54,52,51,206,52,217,44,156,66,74,64,
  162,168,34,107,49,238,28,168,197,27,114,133,
  32,35,254,182,167,168,58,175,137,229,113,73,
  62,197,187,50,1,200,251,171,195,233,62,176,
  218,250,174,181,1,177,6,181,250,222,209,178,
  232,155,54,79,108,138,171,95,160,244,230,236,
  249,10,171,46,12,18,241,150,177,64,30,250,
  166,215,133,191,91,15,4,29,204,95,57,159,
  190,49,73,234,60,188,72,85,187,196,65,184,
  228,58,53,185,61,247,32,204,196,182,119,89,
  210,181,157,220,29,134,165,185,70,100,15,137,
  30,197,71,236,195,165,55,180,37,216,20,56,
  187,142,77,11,105,90,57,147,68,184,83,213,
  23,230,88,182,18,53,171,236,13,203,32,161,
  191,66,50,5,32,245,76,233,57,185,165,4,
  192,101,233,181,53,231,244,207,243,26,92,6,
  77,90,99,34,109,95,151,16,240,97,54,143,
  211,22,223,99,75,13,141,114,160,88,217,179,
  219,251,179,215,251,16,230,222,216,10,210,245,
  94,53,155,12,186,192,227,147,18,25,107,204,
  5,5,226,207,22,47,27,170,16,251,111,218,
  87,208,10,193,223,168,6,36,212,49,67,247,
  213,23,179,215,173,58,79,161,189,209,43,43,
  43,53,76,166,186,243,165,187,218,87,171,238,
  20,154,22,215,64,243,207,198,23,15,213,90,
  92,63,1,234,42,227,227,75,152,16,203,80,
  33,222,142,98,35,165,228,15,41,101,63,177,
  219,179,105,252,4,2,235,152,197,12,191,35,
  1,253,81,217,161,200,157,226,167,7,183,167,
  64,193,144,11,17,198,20,85,221,56,18,87,
  101,105,228,238,228,73,176,57,208,244,9,165,
  1,110,252,246,93,95,9,41,182,179,180,112,
  93,94,166,183,199,108,229,113,31,178,200,53,
  35,64,176,7,72,13,58,248,185,169,231,227,
  239,79,209,185,149,88,240,122,221,196,93,79,
  40,178,86,32,219,19,207,111,7,34,252,17,
  47,61,61,247,30,204,229,122,42,176,38,202,
  209,92,223,39,97,52,69,29,235,202,75,187,
  98,167,151,5,12,208,122,32,60,184,157,241,
  3,27,17,169,159,227,185,69,145,178,38,29,
  94,37,22,45,34,32,107,5,243,5,73,99,
  239,204,66,160,220,172,204,165,203,248,79,124,
  35,40,241,54,11,196,88,24,249,29,22,115,
  250,15,41,176,160,30,87,73,231,181,86,230,
  116,29,221,151,175,220,57,149,18,53,28,49,
  252,134,164,254,136,102,254,85,135,234,245,93,
  61,179,139,47,198,69,195,50,203,18,198,114,
  106,169,90,0,211,14,9,83,25,222,197,176,
  18,41,81,240,7,46,179,202,97,94,245,173,
  228,40,36,255,71,165,65,98,94,235,211,66,
  48,183,69,66,213,248,4,186,203,200,224,37,
  54,43,100,246,2,177,174,253,234,82,223,194,
  94,225,33,46,143,112,115,221,199,55,197,71,
  85,98,206,209,28,160,105,235,180,25,197,46,
  6,1,12,28,213,81,59,49,46,59,65,103,
  168,80,25,163,208,232,70,222,180,197,165,192,
  157,0,53,38,248,201,240,180,231,215,81,111,
  114,39,74,188,30,211,180,66,244,79,156,161,
  31,114,211,44,0,83,51,173,218,61,35,36,
  237,103,224,20,96,53,232,240,115,155,18,189,
  168,195,57,185,60,42,24,210,23,85,192,29,
  53,76,241,231,58,78,60,237,164,225,209,253,
  18,154,50,210,81,41,59,8,6,67,149,225,
  45,22,77,150,182,56,73,182,241,38,138,113,
  120,64,207,65,163,198,189,229,168,105,244,159,
  66,150,62,69,91,77,169,171,79,62,97,224,
  173,154,205,104,172,110,87,102,244,78,254,242,
  246,57,191,242,201,53,80,150,92,189,241,61,
  110,242,14,216,225,249,46,91,89,216,224,169,
  49,175,195,250,142,73,159,148,68,104,198,111,
  253,6,154,69,168,219,232,81,71,4,163,121,
  192,78,113,201,64,77,75,6,191,250,49,162,
  232,99,235,13,50,44,166,27,64,33,83,75,
  217,4,246,226,186,101,78,236,59,82,7,4,
  63,230,142,92,23,51,47,253,99,77,158,167,
  56,183,75,14,205,213,182,194,70,13,35,59,
  180,106,255,181,45,190,113,167,189,26,76,233,
  117,47,8,37,231,183,155,195,190,83,176,254,
  47,80,245,86,204,207,39,196,233,105,2,42,
  199,100,3,95,62,121,53,63,184,199,233,73,
  16,99,230,100,178,94,15,68,233,39,157,187,
  66,24,160,195,181,43,227,63,202,43,79,51,
  12,156,74,228,227,221,81,173,161,90,243,75,
  186,53,167,0,76,217,103,95,95,219,20,11,
  24,161,184,251,96,186,83,44,37,41,153,181,
  63,59,154,39,214,238,248,50,81,241,253,218,
  155,45,2,226,11,199,89,194,61,77,81,113,
  186,165,103,18,140,100,22,85,97,9,208,98,
  205,221,167,232,55,61,171,222,114,15,58,225,
  231,37,60,223,200,104,46,207,108,37,168,160,
  112,35,14,171,16,12,112,159,215,152,159,255,
  65,178,174,101,42,24,221,191,106,174,65,156,
  206,83,24,217,13,225,229,193,49,249,164,254,
  112,17,185,178,33,229,26,183,204,47,139,192,
  230,42,3,28,24,237,17,207,40,31,187,94,
  179,181,220,217,161,21,57,81,12,191,187,52,
  100,157,198,195,153,105,241,188,17,6,95,34,
  159,18,78,57,220,61,222,29,141,53,5,29,
  54,44,233,69,28,100,190,50,247,253,161,19,
  223,146,221,86,42,252,110,52,222,4,156,108,
  106,190,40,190,12,223,37,167,197,147,252,81,
  193,87,31,46,213,214,74,99,241,172,3,90,
  53,91,34,164,16,241,209,36,17,231,41,195,
  238,226,15,105,22,61,195,98,155,111,146,160,
  231,224,65,196,23,85,174,84,90,174,235,76,
  89,48,238,232,56,38,237,162,170,57,188,224,
  242,190,39,22,231,112,173,242,33,199,28,45,
  235,164,20,63,163,162,4,17,177,248,190,246,
  175,254,148,179,66,209,166,63,20,24,85,102,
  72,160,34,249,219,211,112,90,42,7,27,103,
  113,33,142,19,204,13,182,233,28,186,49,158,
  225,71,156,95,62,31,49,211,158,220,152,21,
  220,236,29,246,65,30,103,106,2,68,191,60,
  38,222,90,250,90,173,255,72,212,198,243,26,
  32,192,161,200,10,231,161,24,81,13,140,66,
  159,112,253,204,15,248,205,14,223,192,158,50,
  22,11,235,38,13,1,56,20,76,233,3,193,
  29,20,69,189,203,32,158,235,57,87,183,114,
  1,108,231,253,22,71,167,109,216,225,164,116,
  254,47,1,225,186,27,88,228,6,237,74,96,
  94,36,71,86,55,251,167,54,170,216,223,215,
  170,64,46,23,219,97,90,247,61,38,100,32,
  49,70,19,232,240,86,85,112,245,169,36,227,
  112,174,26,10,139,22,34,52,20,189,182,10,
  29,31,229,89,225,185,12,246,12,100,242,90,
  190,12,68,59,228,237,29,180,202,175,22,78,
  158,44,5,234,200,232,18,11,183,217,26,218,
  77,182,30,5,193,38,230,6,19,212,186,101,
  224,13,71,37,22,175,109,76,26,254,157,231,
  216,157,244,9,252,4,195,91,227,241,32,210,
  245,218,62,42,225,196,206,5,77,52,46,82,
  38,101,203,207,183,201,156,74,73,56,86,105,
  110,66,248,182,168,203,202,190,244,63,204,223,
  74,250,171,56,48,167,115,21,255,211,25,198,
  183,87,25,140,189,8,87,252,217,159,68,112,
  156,2,194,171,12,96,245,90,81,39,250,190,
  113,103,83,213,179,2,181,249,113,249,1,74,
  27,104,157,193,22,21,38,195,230,181,41,69,
  64,106,21,67,177,241,78,191,239,248,160,159,
  173,172,181,183,186,59,175,172,20,169,83,37,
  35,206,45,60,171,24,221,237,157,22,81,245,
  209,223,45,245,172,245,49,212,202,57,96,165,
  6,253,235,73,49,52,202,174,204,251,37,239,
  222,19,30,247,249,235,23,39,3,98,30,88,
  183,64,163,182,51,77,32,219,93,76,246,48,
  173,42,39,59,68,41,70,239,196,43,96,70,
  51,138,163,221,35,19,232,58,43,90,23,47,
  4,208,51,189,70,208,206,8,46,164,12,48,
  230,98,217,170,5,15,57,239,235,9,147,67,
  108,153,42,76,211,116,226,215,252,94,0,42,
  251,28,36,37,29,90,50,42,215,166,73,93,
  181,240,92,80,23,30,12,233,230,222,60,104,
  85,65,7,89,197,188,91,248,9,169,25,37,
  179,252,166,17,60,238,111,160,221,255,78,33,
  3,8,245,84,70,120,15,168,81,170,143,197,
  85,212,240,45,230,4,94,168,240,94,57,166,
  240,228,41,100,141,158,165,250,205,168,161,32,
  182,153,74,38,235,176,228,25,208,156,16,164,
  233,211,227,246,186,204,167,105,255,98,90,242,
  195,234,172,100,45,39,223,182,55,223,68,192,
  196,188,252,69,148,47,44,198,64,1,66,163,
  13,45,244,221,72,59,16,67,49,216,191,239,
  91,156,70,62,171,202,7,168,31,167,181,78,
  53,207,8,230,226,72,17,156,164,207,176,89,
  97,100,209,6,49,157,67,69,226,103,229,230,
  48,251,68,30,244,203,32,43,206,184,158,219,
  112,3,208,97,167,231,196,69,84,110,84,175,
  48,204,235,114,53,170,192,8,235,229,31,62,
  74,116,35,13,221,201,25,223,15,215,99,56,
  211,223,42,7,239,162,171,65,89,220,149,208,
  10,35,215,191,41,117,48,35,52,188,66,175,
  85,0,200,176,9,23,251,216,247,93,50,13,
  35,70,164,48,195,159,83,50,173,33,249,35,
  242,93,27,3,25,158,171,92,70,195,155,60,
  200,121,93,242,0,26,35,36,236,246,94,177,
  70,193,165,240,254,227,235,204,1,188,142,74,
  239,175,255,167,170,64,15,68,61,153,15,196,
  38,189,173,235,214,65,207,231,2,186,239,248,
  198,100,44,15,179,101,118,57,22,47,167,32,
  14,169,92,79,71,241,0,49,49,236,158,114,
  92,42,209,236,172,32,83,62,249,227,194,213,
  157,253,138,81,19,223,103,165,234,89,85,236,
  31,73,82,13,28,6,38,12,172,201,163,67,
  202,216,254,250,253,164,231,175,238,16,241,222,
  32,242,252,163,11,184,234,27,56,84,214,244,
  229,38,88,145,154,62,32,84,240,226,135,171,
  74,214,178,88,46,198,183,168,101,165,0,33,
  101,97,186,195,74,249,254,17,50,177,209,107,
  236,235,24,251,172,247,230,213,81,10,252,182,
  113,204,210,211,216,78,100,205,243,235,60,245,
  17,6,233,33,55,219,36,83,112,247,184,179,
  196,101,235,104,59,156,235,185,196,93,27,167,
  67,235,223,191,65,56,67,61,79,249,93,217,
  3,167,153,24,19,226,165,31,30,218,13,217,
  181,98,8,46,91,85,38,229,207,43,157,196,
  59,189,192,61,160,62,190,57,87,239,207,200,
  83,235,90,166,46,69,192,44,228,73,33,107,
  254,208,209,206,66,66,176,223,50,240,182,16,
  39,87,56,46,248,252,223,207,230,41,171,234,
  220,25,41,229,137,3,34,69,74,98,142,2,
  180,223,87,24,57,232,213,176,157,146,255,174,
  8,185,75,68,89,37,59,6,244,216,61,72,
  220,226,232,181,1,92,87,1,206,226,226,183,
  29,100,168,233,209,234,59,159,245,39,63,228,
  105,247,228,15,189,232,89,190,237,173,143,234,
  26,13,15,186,64,170,159,60,240,57,196,1,
  201,178,177,43,13,69,158,14,250,174,188,204,
  205,242,172,220,199,225,21,242,160,205,47,96,
  70,222,29,204,137,220,218,59,165,84,182,255,
  66,73,88,151,37,6,186,221,173,251,170,193,
  81,23,235,31,194,196,5,245,157,155,209,250,
  7,21,190,228,63,44,44,205,143,224,49,39,
  5,39,35,21,200,170,118,97,211,9,144,194,
  43,44,14,171,201,58,112,197,163,252,84,12,
  34,109,190,149,57,223,61,53,81,191,20,20,
  226,38,23,251,255,244,93,198,169,216,208,196,
  184,194,16,213,199,20,15,212,63,76,71,43,
  208,165,203,208,234,214,68,183,90,171,158,26,
  60,0,64,186,172,241,159,178,2,171,37,198,
  22,37,48,113,238,60,36,24,232,212,13,250,
  47,54,114,57,53,118,63,234,254,107,202,49,
  32,200,210,65,227,207,88,228,18,169,144,255,
  195,246,0,176,6,41,37,193,80,186,8,239,
  174,226,238,51,154,74,94,56,22,80,99,255,
  224,51,57,185,77,32,217,20,88,35,88,40,
  95,224,65,103,1,249,117,16,100,175,29,168,
  171,47,184,92,252,158,6,57,50,188,94,24,
  61,8,233,54,207,56,65,253,237,69,184,198,
  138,32,31,216,224,96,233,154,184,165,21,65,
  192,216,210,188,103,15,73,255,113,251,174,64,
  239,206,192,98,61,68,57,47,204,207,191,161,
  216,182,22,32,85,146,195,0,95,36,0,89,
  90,248,78,6,114,212,4,139,111,65,119,183,
  177,159,52,167,188,164,159,150,20,245,114,219,
  170,45,97,192,235,163,177,157,177,39,46,239,
  252,138,203,59,82,1,28,227,76,164,9,10,
  57,55,178,235,205,226,143,178,72,16,114,23,
  49,2,182,166,182,18,141,11,0,202,254,193,
  189,216,183,89,201,173,160,161,176,11,98,173,
  187,156,12,245,164,211,93,67,169,184,48,44,
  24,254,180,254,239,41,27,152,144,216,100,37,
  47,12,146,158,196,80,138,210,185,39,5,180,
  76,112,24,222,68,98,51,67,184,90,40,244,
  252,240,85,203,62,135,203,167,193,92,117,34,
  197,20,71,191,251,244,153,209,174,222,56,151,
  223,119,120,248,30,59,228,250,219,63,47,204,
  66,49,73,58,223,227,200,7,252,173,100,179,
  81,111,108,244,4,37,3,17,166,226,254,211,
  232,63,103,93,40,0,236,206,195,5,212,79,
  162,218,79,50,20,244,54,186,242,215,100,30,
  189,181,39,50,56,61,61,222,11,154,85,189,
  78,186,73,160,2,182,239,9,55,111,71,138,
  42,27,4,182,103,141,38,43,86,98,71,145,
  195,7,131,226,200,252,230,218,141,81,22,237,
  207,192,156,184,239,194,182,215,173,217,255,75,
  221,201,135,9,113,139,56,38,233,87,216,1,
  249,88,83,14,41,215,205,234,227,239,200,180,
  170,44,48,171,25,147,155,69,247,198,48,58,
  93,146,137,223,77,145,141,83,202,187,169,249,
  44,231,148,90,160,175,157,231,72,227,212,39,
  146,13,159,38,207,199,38,221,70,200,253,153,
  146,171,106,195,189,78,56,85,173,255,34,69,
  52,240,101,201,247,2,230,9,253,202,196,40,
  181,254,176,13,74,247,56,42,6,36,3,66,
  57,12,161,96,232,248,48,189,148,33,176,138,
  49,92,176,67,50,78,154,161,173,254,38,251,
  56,204,193,159,166,35,75,31,200,71,169,37,
  148,217,51,44,202,17,153,52,200,58,116,225,
  41,191,71,172,22,20,203,159,192,173,245,231,
  6,87,223,224,206,165,183,214,228,102,3,235,
  5,149,234,219,175,222,251,194,72,73,60,213,
  42,82,228,169,112,210,36,12,93,2,227,149,
  165,230,34,1,178,35,9,46,17,50,37,88,
  180,16,251,5,73,210,193,183,150,250,99,168,
  28,242,20,80,245,186,154,54,224,217,37,146,
  53,14,39,64,204,3,136,204,249,32,79,208,
  11,57,21,205,5,228,159,8,52,246,87,137,
  224,235,248,149,41,80,208,25,6,176,86,210,
  122,43,90,95,42,176,83,70,25,173,189,15,
  165,63,244,171,30,222,200,168,185,25,167,163,
  189,2,31,44,144,30,50,162,229,59,147,168,
  30,2,143,40,82,117,223,26,198,50,7,157,
  233,59,186,237,81,184,205,80,38,244,247,159,
  68,163,90,236,63,42,7,83,98,214,67,15,
  232,63,61,67,52,88,58,191,101,41,219,222,
  237,124,68,16,255,106,241,162,83,173,143,185,
  186,5,209,155,54,53,75,193,218,132,48,122,
  235,189,166,222,39,57,174,106,183,234,36,116,
  22,254,174,255,26,165,19,253,7,238,205,120,
  253,238,180,75,244,53,98,235,232,43,217,108,
  53,76,239,28,249,25,41,7,25,120,226,75,
  163,170,34,5,17,45,42,117,92,192,149,9,
  241,107,166,77,150,107,14,46,233,239,217,206,
  111,179,42,35,66,71,167,233,140,36,31,172,
  174,144,3,215,191,121,75,9,6,168,35,254,
  175,140,233,236,147,225,60,251,2,232,46,33,
  30,57,95,255,19,51,20,51,145,7,93,213,
  211,202,85,111,235,160,240,95,6,177,39,179,
  84,245,32,57,185,90,9,199,157,38,244,50,
  89,244,140,26,197,34,75,197,92,153,64,41,
  250,149,227,15,6,121,16,13,40,162,0,198,
  105,148,70,34,90,24,106,88,91,205,183,27,
  252,230,209,180,208,75,105,167,48,161,41,168,
  105,32,214,52,14,9,74,97,163,85,242,229,
  30,66,188,200,89,166,93,169,79,198,159,183,
  53,81,114,64,146,89,222,90,224,80,134,25,
  103,144,23,30,167,95,92,225,87,45,75,239,
  117,252,18,29,45,249,62,31,24,37,251,80,
  190,199,224,88,166,180,100,189,162,1,159,107,
  51,210,68,71,153,50,197,47,183,20,149,28,
  28,46,190,13,235,67,19,16,221,54,69,212,
  11,31,203,97,90,30,209,164,186,37,254,169,
  3,116,179,30,77,230,26,190,161,16,217,181,
  60,91,237,182,47,227,106,106,154,179,47,202,
  181,216,27,161,144,95,205,67,4,144,162,159,
  221,173,15,225,236,33,6,1,22,190,197,45,
  186,72,41,74,92,254,7,229,38,38,163,103,
  65,11,0,181,153,222,247,29,252,166,165,31,
  56,254,199,198,10,99,243,255,216,10,148,164,
  254,112,35,243,52,224,9,253,15,223,252,116,
  57,251,215,73,142,89,17,240,107,51,237,68,
  209,109,242,47,11,115,46,90,1,38,184,108,
  114,252,40,63,44,27,67,88,249,79,237,234,
  77,110,84,192,145,96,227,48,186,101,137,41,
  62,64,254,101,80,209,200,192,171,94,66,67,
  46,252,78,176,69,243,21,212,1,160,5,13,
  226,60,69,183,179,115,9,171,172,9,212,21,
  168,101,225,149,107,243,64,184,199,239,30,159,
  156,175,165,168,4,234,215,24,140,177,23,246,
  80,2,50,167,217,70,162,65,217,71,197,26,
  136,31,192,107,102,49,1,103,74,71,240,168,
  46,47,182,163,200,155,192,37,16,60,196,146,
  253,97,173,37,188,164,80,39,22,220,217,228,
  152,217,229,166,182,71,150,174,235,98,238,47,
  242,83,153,79,94,232,88,63,212,204,173,33,
  56,92,158,155,54,167,24,90,102,209,186,247,
  195,251,82,221,9,66,22,75,244,200,109,181,
  170,74,60,70,3,42,3,94,239,150,75,238,
  45,10,225,40,43,35,67,0,81,18,124,180,
  212,231,148,228,227,236,32,55,39,209,195,251,
  6,223,47,237,242,100,34,40,9,90,19,59,
  235,214,178,35,239,30,30,48,253,217,35,180,
  70,53,88,88,8,40,24,50,12,12,110,27,
  19,143,3,36,30,232,11,162,236,249,59,69,
  22,197,209,68,183,38,181,11,55,224,190,20,
  195,91,203,179,204,79,63,88,118,230,163,10,
  71,97,178,192,208,44,250,31,200,215,254,158,
  46,155,158,252,92,48,17,11,96,196,110,238,
  137,236,243,219,25,224,166,181,240,220,191,91,
  199,190,41,20,44,208,0,243,242,65,85,208,
  38,21,160,97,43,91,186,108,201,115,110,69,
  207,87,175,242,182,75,31,91,31,112,34,37,
  164,98,217,199,213,150,155,74,220,20,178,220,
  134,66,220,53,248,8,223,100,148,170,36,251,
  251,117,87,243,188,209,252,224,158,95,192,136,
  248,27,10,193,84,224,157,179,161,173,224,20,
  48,195,104,85,40,93,18,248,253,169,225,174,
  32,39,111,94,249,158,140,195,151,109,227,8,
  228,193,225,245,48,2,187,210,75,195,232,207,
  197,24,214,29,123,225,208,59,168,149,7,12,
  83,92,64,62,223,44,62,115,202,78,28,232,
  172,2,222,83,61,179,37,50,243,54,180,228,
  38,168,147,156,92,97,64,19,186,169,225,191,
  183,188,205,244,204,67,84,55,205,195,254,164,
  226,185,1,7,41,252,169,2,18,89,29,190,
  241,43,21,213,223,166,24,197,97,87,244,0,
  73,187,153,236,234,188,66,80,168,252,49,103,
  196,86,61,160,57,209,35,6,37,163,173,217,
  155,104,47,93,114,44,151,16,146,1,29,219,
  89,225,102,207,7,231,50,229,57,53,253,17,
  139,140,232,175,77,157,194,15,176,161,214,207,
  246,30,46,26,188,2,141,186,100,164,122,244,
  244,252,161,227,58,44,165,23,40,68,56,151,
  58,188,69,211,120,183,83,169,204,223,117,15,
  164,141,20,249,73,235,38,0,86,54,103,47,
  180,235,144,37,62,251,52,74,53,31,186,205,
  179,170,69,39,104,219,93,179,26,59,121,252,
  192,204,244,73,91,209,137,186,2,19,44,63,
  63,228,191,30,230,22,181,161,71,67,76,206,
  80,42,95,216,88,253,8,192,44,4,72,0,
  58,92,211,20,197,140,73,96,246,192,207,135,
  12,147,95,157,27,32,196,243,193,231,164,163,
  28,7,247,106,1,235,70,251,19,111,86,235,
  47,0,61,159,231,26,38,228,109,48,209,246,
  149,79,99,6,240,189,233,80,191,47,122,136,
  250,149,159,184,224,197,234,192,144,76,238,45,
  206,45,144,113,245,55,88,71,134,201,62,93,
  60,54,138,110,6,213,183,212,239,66,82,240,
  223,250,46,76,12,36,163,197,234,19,236,140,
  27,238,135,52,215,150,245,95,222,59,5,162,
  95,42,17,81,227,215,219,217,159,160,207,81,
  151,63,191,216,226,9,78,174,3,183,190,152,
  22,64,185,252,51,89,20,4,12,224,115,21,
  203,111,79,35,98,3,61,219,104,177,1,135,
  199,96,59,146,91,147,197,94,250,29,173,250,
  10,49,37,38,172,47,8,47,83,217,38,88,
  180,49,208,165,52,230,240,48,164,236,25,205,
  164,15,115,88,196,180,149,36,222,205,93,250,
  48,0,78,173,31,85,37,114,63,26,116,12,
  204,88,181,243,49,138,32,17,199,19,80,178,
  12,104,68,1,9,89,158,117,35,2,47,164,
  153,162,174,95,113,212,12,235,201,45,189,24,
  79,231,63,189,39,243,7,103,246,86,176,174,
  40,97,82,76,224,161,233,58,227,46,202,167,
  185,83,19,218,103,233,17,73,83,43,223,175,
  70,121,170,169,105,134,222,121,16,231,251,241,
  58,150,252,83,0,170,148,241,66,240,179,222,
  48,84,204,244,186,207,43,86,52,191,219,80,
  28,60,42,52,59,92,19,11,161,32,104,3,
  242,25,192,174,94,166,239,142,236,58,31,216,
  204,63,239,67,122,189,155,221,2,25,51,31,
  163,214,4,67,59,3,188,58,155,171,209,187,
  43,140,187,116,183,167,211,95,36,83,243,249,
  243,147,148,176,59,38,69,203,232,245,25,137,
  180,142,253,224,77,25,63,173,63,48,197,189,
  69,57,32,249,89,245,230,246,252,229,245,166,
  204,109,192,10,63,133,197,53,88,139,59,52,
  255,208,67,40,179,26,19,5,50,254,236,212,
  135,174,7,102,47,13,72,62,203,159,161,74,
  94,47,68,230,165,230,233,29,149,91,57,86,
  138,82,156,42,226,39,187,148,212,0,26,208,
  142,51,42,198,46,51,34,231,108,163,3,4,
  41,54,95,45,0,224,49,151,101,81,209,91,
  72,77,184,242,230,76,199,78,86,150,85,206,
  189,17,157,138,177,66,241,60,98,40,106,214,
  33,229,24,195,69,197,201,239,170,66,25,63,
  47,211,140,254,121,249,69,52,18,234,75,33,
  244,134,225,91,251,205,244,229,87,15,51,226,
  33,56,46,72,162,53,168,23,90,76,249,163,
  26,35,89,237,235,219,0,74,2,28,60,135,
  8,152,53,246,74,55,252,141,154,244,176,163,
  18,227,29,12,183,25,99,143,181,238,62,173,
  253,43,85,157,157,244,242,134,6,40,168,239,
  4,217,76,136,98,193,18,219,135,187,248,17,
  243,98,138,152,226,183,213,28,71,47,20,94,
  255,220,223,219,218,66,173,64,211,231,180,153,
  213,85,19,74,52,251,255,14,65,195,24,26,
  220,59,216,41,193,166,145,43,174,143,47,210,
  231,93,25,218,236,2,241,41,192,19,228,80,
  187,211,46,143,228,135,234,252,69,40,26,236,
  20,49,206,25,215,142,11,173,219,24,210,69,
  51,31,34,16,34,155,195,76,217,200,162,192,
  73,35,50,252,163,183,182,63,166,179,46,47,
  19,86,223,144,182,26,40,251,106,24,215,220,
  39,78,192,160,214,51,210,253,160,113,32,88,
  245,187,206,98,224,8,240,77,194,230,105,175,
  175,69,69,218,212,235,159,42,54,123,110,240,
  0,173,235,99,26,71,156,231,244,240,27,224,
  78,231,11,43,247,96,145,49,59,187,156,209,
  226,101,242,58,63,205,224,74,196,227,92,158,
  230,251,160,235,104,209,99,173,184,225,224,200,
  210,221,255,23,84,231,191,55,186,240,22,138,
  59,147,168,71,119,20,36,233,170,37,243,180,
  0,21,223,22,22,236,58,60,239,84,199,12,
  48,251,219,179,59,196,216,86,177,195,214,135,
  196,248,68,83,112,222,33,247,179,254,122,194,
  195,47,43,169,230,234,93,173,233,173,34,70,
  50,191,134,51,172,36,55,192,83,58,185,75,
  60,77,79,0,72,246,57,51,44,91,105,43,
  163,38,0,204,42,60,219,54,35,244,224,194,
  219,189,187,113,109,8,221,167,236,15,234,155,
  204,211,29,215,0,1,81,145,26,191,55,171,
  43,243,167,34,87,153,37,243,28,53,69,138,
  50,220,200,182,245,253,87,201,216,56,205,134,
  211,162,161,162,246,209,178,231,26,190,184,229,
  9,91,66,184,102,228,163,109,41,222,179,193,
  149,211,235,152,91,249,189,156,63,23,204,192,
  236,50,95,74,120,58,194,107,1,158,104,253,
  8,240,191,66,233,225,139,110,68,239,64,208,
  53,233,193,88,29,84,186,244,178,154,115,223,
  148,182,47,74,183,223,238,249,62,48,29,170,
  39,6,231,185,118,40,52,98,220,230,196,92,
  197,40,145,45,226,40,100,177,179,165,116,223,
  85,59,69,213,163,245,230,192,76,230,237,17,
  237,96,249,203,21,210,183,55,223,89,49,187,
  206,5,24,180,43,73,20,82,45,96,241,207,
  157,149,151,219,169,54,67,72,219,44,236,190,
  2,65,51,71,54,0,238,83,218,53,66,7,
  190,89,230,62,94,36,78,227,57,223,234,48,
  195,226,39,159,84,154,250,77,180,48,50,73,
  242,141,88,236,37,228,156,238,52,65,12,59,
  223,21,229,52,198,16,249,159,229,66,243,88,
  193,3,184,204,178,227,151,161,163,232,90,173,
  217,156,77,66,165,163,242,89,64,74,103,143,
  245,62,12,219,52,145,156,133,215,188,31,252,
  7,182,1,149,215,43,9,243,69,143,30,200,
  95,163,69,0,6,197,44,180,73,40,95,216,
  189,35,171,184,71,21,211,34,191,73,252,153,
  144,88,41,194,59,178,77,31,199,69,226,164,
  235,87,238,80,222,8,89,95,232,166,204,246,
  237,239,39,205,228,228,72,104,229,236,75,186,
  78,42,21,205,197,15,189,76,101,93,174,192,
  76,44,81,217,23,115,183,117,64,25,29,40,
  50,68,23,9,168,182,79,105,9,174,238,59,
  191,86,48,251,235,224,48,161,44,31,93,58,
  157,69,16,167,97,194,14,171,245,203,53,174,
  28,95,248,109,202,57,40,21,66,7,66,148,
  167,240,94,173,31,82,225,254,54,114,165,18,
  149,18,228,212,197,211,32,10,98,215,92,171,
  30,166,250,206,203,133,73,19,196,187,234,92,
  146,177,32,244,239,222,97,171,87,241,19,173,
  94,33,141,4,87,181,195,198,151,245,67,157,
  196,114,202,234,233,5,59,252,80,147,17,150,
  165,70,28,236,193,203,35,44,212,176,53,155,
  58,12,175,2,243,95,228,104,91,205,68,164,
  33,155,236,240,184,139,100,158,25,89,208,221,
  162,36,218,88,43,11,29,172,4,92,74,38,
  142,238,161,187,67,166,253,205,242,163,18,234,
  188,36,39,247,81,74,160,217,90,186,222,175,
  51,165,207,14,170,20,246,79,156,58,242,189,
  205,10,63,105,254,57,36,173,24,174,90,159,
  165,212,161,159,245,233,200,237,176,239,248,73,
  47,213,200,173,163,132,90,89,217,247,230,64,
  180,75,232,71,1,7,31,165,173,224,19,23,
  211,153,5,44,201,171,148,14,87,175,251,11,
  34,10,168,64,112,240,255,53,58,43,106,12,
  25,236,143,183,225,56,86,4,208,241,176,76,
  138,178,101,78,220,139,92,163,250,226,177,86,
  162,184,217,214,102,154,91,219,49,94,44,34,
  39,24,28,80,243,224,254,165,6,2,27,0,
  16,79,160,100,117,209,254,160,56,242,252,31,
  82,228,188,75,181,160,144,195,158,15,222,217,
  252,35,47,65,61,244,151,54,92,231,36,75,
  65,69,4,156,19,177,215,187,28,210,56,184,
  241,185,62,221,67,150,27,244,20,182,194,64,
  219,19,70,76,68,91,97,100,35,58,39,32,
  175,37,67,197,39,161,94,66,21,234,50,50,
  141,1,20,112,186,72,217,76,193,198,213,193,
  16,1,247,62,47,54,79,229,86,32,186,208,
  64,74,218,175,181,244,37,226,198,77,234,7,
  59,209,253,84,29,118,185,203,232,3,150,97,
  172,159,160,30,137,187,78,190,64,6,143,87,
  177,25,179,95,200,231,13,180,54,65,3,182,
  65,217,84,91,53,84,47,239,191,145,141,247,
  206,177,25,50,248,246,92,3,99,248,220,244,
  182,118,96,102,4,211,188,191,213,247,15,107,
  160,70,122,20,239,204,96,33,73,91,203,252,
  68,72,204,74,157,20,179,45,75,251,40,34,
  41,103,98,97,68,180,162,10,56,191,4,76,
  34,114,201,172,46,175,24,70,111,203,60,225,
  76,177,76,233,72,87,92,19,54,222,142,11,
  204,79,30,248,42,86,22,74,149,168,42,35,
  234,15,181,224,205,204,69,6,88,15,78,165,
  223,83,209,173,61,11,212,95,177,183,14,246,
  186,228,216,174,63,107,164,254,207,215,41,64,
  164,10,74,29,162,201,229,76,42,160,183,197,
  226,33,226,156,169,66,215,19,94,20,68,184,
  66,96,41,42,49,0,233,30,241,95,30,57,
  71,149,11,252,192,201,12,225,142,62,143,116,
  218,243,144,214,183,172,86,202,37,73,84,31,
  1,49,33,137,191,123,118,3,213,250,93,52,
  209,193,160,82,16,194,178,200,38,106,229,112,
  230,227,175,105,144,111,180,38,15,148,13,8,
  230,210,106,98,215,228,191,38,57,172,182,185,
  185,26,61,203,207,207,174,38,104,45,50,21,
  211,32,44,179,72,208,66,142,219,80,19,176,
  21,249,238,178,141,121,57,252,247,149,159,96,
  75,17,207,56,138,72,2,32,9,92,7,31,
  236,96,86,197,243,228,171,246,165,243,137,212,
  51,211,104,200,245,1,93,170,118,189,20,236,
  9,202,68,168,136,66,83,64,50,69,171,4,
  121,97,18,244,253,38,26,47,154,204,183,31,
  239,184,145,16,137,210,85,117,208,32,173,30,
  95,254,96,164,144,29,44,76,251,194,170,50,
  71,105,157,171,155,182,90,243,103,95,220,161,
  190,190,250,145,59,118,68,90,110,81,211,98,
  43,192,227,20,201,93,1,45,243,197,220,110,
  70,60,45,172,231,6,164,199,194,60,211,228,
  114,203,178,43,67,251,177,234,198,29,217,243,
  190,179,8,59,23,104,88,37,227,173,253,72,
  94,91,7,219,215,46,71,240,198,36,149,52,
  212,235,49,48,205,185,158,162,247,219,22,48,
  218,106,85,184,178,28,242,35,36,6,183,123,
  55,117,246,11,90,226,3,73,13,115,222,233,
  77,241,5,123,145,122,47,235,231,42,50,248,
  159,63,103,160,238,210,236,224,195,214,158,235,
  184,161,163,71,95,230,31,5,183,0,184,73,
  170,208,255,49,246,77,243,7,119,29,99,240,
  71,34,41,63,168,50,48,34,163,28,118,233,
  68,201,177,53,118,40,21,226,205,109,189,134,
  236,208,38,199,233,254,198,238,94,18,189,81,
  78,56,101,48,105,155,54,229,171,86,43,39,
  213,17,70,9,39,178,235,202,183,56,19,59,
  203,73,143,48,109,252,89,30,255,187,0,92,
  146,141,141,49,219,205,4,64,47,180,201,238,
  154,232,186,208,209,171,206,182,162,142,169,93,
  1,201,86,156,160,2,38,225,14,15,86,98,
  246,146,173,170,199,6,97,36,81,147,73,148,
  245,95,248,96,48,38,255,165,28,10,253,213,
  165,43,22,70,58,156,65,148,222,205,224,211,
  255,75,164,176,162,52,245,115,95,193,219,251,
  174,241,10,30,85,19,51,239,248,199,217,134,
  61,196,83,96,236,83,38,175,38,54,211,240,
  163,192,70,10,233,147,176,118,9,11,23,86,
  11,240,215,12,161,70,27,51,231,101,173,140,
  92,208,198,0,218,75,178,170,15,103,184,16,
  229,101,58,239,0,16,221,181,76,42,172,5,
  79,22,245,95,54,172,43,115,20,177,57,188,
  236,235,22,254,47,220,79,60,26,46,95,0,
  237,111,237,244,184,184,0,54,110,111,72,228,
  87,255,88,39,16,68,76,0,228,32,37,208,
  218,241,44,176,222,191,35,246,32,254,8,191,
  171,175,152,213,30,174,44,207,78,108,6,175,
  12,115,54,202,32,44,49,61,204,104,21,27,
  147,254,2,164,6,251,0,60,18,241,31,90,
  23,69,31,77,206,6,17,243,7,114,84,13,
  230,19,7,210,60,2,221,55,17,86,211,216,
  56,150,83,217,70,245,162,235,207,216,243,160,
  173,38,71,74,50,186,196,76,19,236,58,27,
  74,51,146,22,244,47,73,155,224,234,216,173,
  225,176,150,197,216,166,253,147,48,56,250,45,
  98,234,224,3,248,150,16,211,203,87,79,168,
  146,249,49,56,248,66,74,244,157,173,107,148,
  177,170,188,58,58,211,13,233,224,196,13,253,
  10,3,215,229,61,87,42,63,250,244,184,213,
  58,15,23,67,221,56,96,76,222,134,222,60,
  233,86,8,191,246,214,93,51,24,92,28,89,
  253,84,216,77,249,211,201,165,253,229,178,30,
  37,115,85,213,169,73,204,235,183,81,97,189,
  145,245,23,46,121,192,41,141,249,209,7,154,
  9,27,64,74,189,9,23,248,40,145,170,244,
  32,200,144,207,43,84,170,183,141,211,213,29,
  85,163,21,159,180,3,5,239,215,80,253,73,
  177,99,0,10,43,86,81,80,168,185,53,1,
  40,96,15,67,12,221,21,145,195,161,222,4,
  73,231,193,202,169,3,144,78,20,177,47,158,
  149,105,84,189,249,241,187,67,6,81,65,221,
  151,80,146,51,233,74,55,57,10,174,212,21,
  90,248,59,242,66,83,226,17,224,171,211,203,
  80,201,31,43,65,181,29,198,208,175,17,166,
  197,42,185,242,204,212,157,56,213,216,43,100,
  55,95,100,215,34,193,180,88,22,59,194,25,
  221,198,111,9,15,236,93,152,229,209,15,253,
  168,17,194,63,49,199,62,245,171,77,223,74,
  226,83,245,189,226,160,117,45,143,234,66,42,
  82,226,239,157,51,227,237,98,235,169,177,35,
  76,13,63,11,176,109,102,0,177,91,222,101,
  69,162,219,25,251,151,52,64,1,200,46,86,
  8,72,19,52,44,224,30,42,200,223,190,19,
  148,205,143,26,6,79,152,154,150,22,185,237,
  85,162,75,186,251,30,23,139,206,224,2,92,
  63,253,98,38,168,28,179,154,154,83,58,21,
  15,99,40,152,80,235,181,164,13,111,252,66,
  206,58,38,200,232,72,185,214,45,215,171,223,
  91,4,88,234,167,73,217,62,19,206,51,253,
  230,208,55,237,242,244,72,50,205,201,216,42,
  73,152,41,39,98,170,87,162,89,51,53,206,
  253,4,211,204,240,140,18,11,28,210,29,246,
  20,228,119,39,20,35,201,233,32,223,154,3,
  92,56,58,42,42,205,35,116,245,249,46,41,
  91,229,98,183,249,82,81,113,226,207,159,219,
  46,89,166,56,203,74,167,149,239,185,194,236,
  110,49,51,158,25,58,36,44,94,81,82,211,
  26,224,170,169,184,52,167,60,231,16,83,74,
  102,255,91,73,85,28,94,209,188,91,91,59,
  31,208,91,14,209,244,102,31,154,234,200,40,
  172,10,187,212,175,206,35,62,6,254,237,28,
  59,66,246,223,158,148,211,208,67,19,202,16,
  177,227,225,77,200,159,217,51,88,189,90,200,
  107,74,57,193,106,158,189,102,243,35,35,253,
  97,235,168,82,11,79,230,48,206,111,87,200,
  101,32,104,189,184,225,191,1,101,2,82,39,
  47,231,210,51,80,10,177,77,98,166,105,11,
  4,11,38,157,104,49,7,246,216,244,181,101,
  105,183,70,72,186,145,40,4,32,106,84,62,
  66,52,37,96,225,180,10,236,184,203,194,153,
  86,95,243,32,163,32,19,182,31,194,167,175,
  192,114,27,247,255,78,78,191,207,29,83,93,
  241,199,149,150,157,75,92,83,20,232,231,234,
  9,73,177,37,61,184,23,250,12,220,209,198,
  209,67,22,95,28,44,5,72,68,168,188,229,
  21,65,163,87,48,23,175,14,36,159,62,142,
  216,225,225,29,85,54,249,12,224,200,234,64,
  61,14,21,86,235,244,23,176,211,237,49,218,
  148,171,5,58,173,185,31,11,191,90,161,205,
  168,42,210,18,98,51,166,250,94,28,194,20,
  185,3,185,151,45,145,72,162,82,71,19,247,
  205,64,62,46,167,205,210,25,20,197,191,150,
  212,92,216,3,211,72,8,196,120,32,186,248,
  78,35,4,199,224,81,166,242,61,23,50,76,
  217,245,241,197,53,137,60,223,70,105,190,154,
  50,118,214,230,28,183,63,156,189,217,85,250,
  62,195,194,60,226,185,79,65,252,48,76,76,
  44,42,82,212,117,198,227,242,83,0,48,144,
  62,103,68,86,169,246,34,40,185,167,202,14,
  164,2,178,71,105,66,208,47,19,1,166,164,
  174,13,135,92,94,27,239,156,57,31,104,231,
  185,166,171,61,72,217,8,183,255,44,71,185,
  39,51,34,35,202,151,245,50,244,191,168,70,
  87,160,30,72,78,249,185,246,71,155,185,4,
  84,80,6,249,162,60,90,152,35,156,53,69,
  196,29,172,150,210,164,224,139,171,35,236,79,
  62,71,36,21,84,195,148,52,149,158,104,54,
  218,119,202,5,248,253,216,90,70,213,175,64,
  226,82,232,71,111,74,222,234,177,250,202,159,
  159,25,187,174,104,14,218,234,36,48,182,209,
  102,47,248,237,215,192,18,255,165,239,217,68,
  0,201,193,70,2,156,164,209,216,144,180,56,
  100,216,221,101,36,170,154,219,209,89,86,89,
  19,213,41,220,179,38,11,87,116,94,194,219,
  3,197,103,54,42,243,73,217,170,21,5,156,
  20,243,37,168,73,205,252,57,66,236,167,221,
  12,195,71,50,220,244,13,43,77,53,233,197,
  238,197,61,236,64,141,243,53,9,0,112,71,
  189,234,33,220,87,252,95,106,139,195,207,142,
  162,30,163,15,61,68,170,105,56,153,244,135,
  209,210,153,37,228,35,59,59,15,112,1,46,
  20,19,16,46,88,10,165,6,233,167,4,26,
  182,192,106,94,72,239,11,34,214,48,178,203,
  62,11,96,185,248,10,66,230,44,10,83,72,
  239,160,107,209,206,224,161,252,249,52,37,225,
  72,230,86,184,77,90,205,50,241,242,7,201,
  3,245,86,252,63,243,143,147,79,50,45,232,
  228,26,207,229,63,63,74,139,175,11,172,23,
  190,24,151,196,54,171,170,25,229,154,34,227,
  207,248,27,32,3,183,244,103,232,84,60,38,
  82,28,21,83,252,180,74,248,21,41,50,226,
  203,68,72,47,60,135,198,1,51,200,193,144,
  98,52,151,113,49,141,37,100,161,43,40,149,
  91,187,166,94,120,146,21,179,220,192,50,96,
  66,189,181,33,117,152,97,156,223,24,233,58,
  65,199,77,26,7,158,176,90,10,46,32,169,
  97,13,235,196,170,22,29,178,26,58,102,144,
  19,184,49,1,255,233,14,52,192,4,198,75,
  168,9,5,51,0,212,180,95,9,155,84,91,
  99,11,216,80,179,47,242,239,28,159,94,7,
  156,37,53,167,174,48,229,150,196,198,25,139,
  95,240,52,41,38,38,247,93,217,230,171,34,
  236,39,56,98,244,185,232,31,14,12,82,248,
  222,224,243,107,61,112,65,170,162,46,251,56,
  6,21,206,22,28,65,249,83,87,174,67,74,
  220,94,183,8,200,219,166,59,80,152,79,46,
  62,38,63,58,221,205,87,176,168,21,227,117,
  186,82,185,49,63,183,150,164,17,75,19,212,
  181,41,235,149,234,14,244,52,42,179,238,55,
  5,82,244,106,183,99,152,61,205,24,4,190,
  174,254,174,93,247,219,223,20,16,166,209,57,
  239,91,8,187,235,20,235,25,64,159,76,168,
  250,231,83,178,245,65,228,120,210,230,80,239,
  253,219,53,9,252,10,100,191,250,155,185,50,
  19,250,3,29,91,205,78,61,172,251,245,184,
  71,14,248,254,88,223,161,20,235,158,82,243,
  205,205,159,177,241,161,246,157,228,193,152,72,
  71,190,225,211,171,92,47,73,206,106,101,222,
  199,158,85,82,44,253,53,248,70,85,234,99,
  223,144,16,151,45,89,174,254,161,168,238,240,
  102,205,17,243,40,111,103,27,1,168,222,18,
  254,174,35,26,95,174,244,86,150,237,95,114,
  3,81,193,214,70,7,1,214,162,6,242,74,
  189,172,190,66,49,214,80,255,52,66,196,22,
  18,20,181,97,13,165,98,36,184,24,47,81,
  239,51,170,251,53,64,84,99,97,109,41,159,
  159,16,55,248,252,215,22,236,22,21,23,231,
  172,165,33,88,56,224,48,28,10,153,232,163,
  170,83,36,47,66,238,252,254,72,29,62,118,
  216,205,83,31,52,176,22,193,169,74,233,230,
  33,52,215,52,173,196,90,218,235,169,97,68,
  175,51,45,28,253,7,92,91,43,7,74,75,
  81,169,101,179,215,249,71,78,198,92,96,36,
  27,240,231,33,20,220,169,115,62,229,245,245,
  155,56,221,191,200,210,222,251,201,208,176,16,
  89,192,101,176,194,232,17,247,178,205,52,84,
  166,215,82,168,233,70,169,244,201,13,197,215,
  235,199,194,246,182,188,41,229,20,24,185,102,
  3,215,244,75,88,29,171,52,195,178,19,30,
  220,212,227,47,251,169,63,157,155,177,213,99,
  245,11,200,175,14,119,98,212,79,84,229,165,
  191,249,68,142,34,245,90,178,216,158,87,110,
  10,210,88,146,147,229,170,51,2,84,182,210,
  198,69,162,170,162,36,163,103,14,241,72,194,
  200,152,215,199,196,12,89,191,93,156,254,24,
  18,200,106,54,245,237,21,114,86,214,84,71,
  232,86,171,71,190,229,89,32,152,231,150,67,
  155,23,106,21,226,158,213,210,91,42,77,157,
  156,188,252,169,236,1,7,24,215,20,250,8,
  112,157,166,83,61,31,61,102,5,167,168,120,
  25,9,224,146,229,171,101,168,113,236,204,24,
  209,34,209,162,44,205,105,220,0,244,253,143,
  250,49,4,187,96,172,233,92,103,101,149,99,
  113,6,224,254,218,147,55,193,170,206,202,61,
  10,212,69,83,150,210,49,247,219,38,72,202,
  192,55,40,229,84,27,36,222,209,153,255,254,
  52,115,226,176,167,229,192,177,237,31,159,196,
  211,191,255,87,191,202,197,65,41,243,163,0,
  82,32,191,160,169,187,216,238,227,181,85,43,
  37,56,159,92,97,250,139,5,7,22,45,255,
  154,204,167,183,243,185,7,213,50,48,177,29,
  180,40,201,6,34,86,241,16,80,203,0,237,
  204,70,115,180,29,91,200,9,90,180,81,44,
  1,255,213,73,175,114,209,205,25,78,182,37,
  188,57,199,224,2,236,164,185,153,109,223,200,
  199,20,39,176,221,199,237,117,149,155,213,244,
  182,58,152,62,187,84,220,212,33,241,152,217,
  81,4,48,237,254,223,253,40,165,17,40,93,
  45,237,98,61,31,234,54,217,96,101,232,196,
  239,59,142,94,203,239,47,161,198,170,216,102,
  250,229,218,222,218,214,247,242,18,156,211,167,
  183,18,253,32,101,51,222,165,210,232,172,252,
  205,59,236,5,15,208,35,172,215,236,248,100,
  13,206,200,62,254,185,32,85,252,65,39,197,
  237,80,2,1,216,96,84,235,222,214,174,198,
  4,202,98,176,244,4,34,46,21,62,1,57,
  82,15,154,158,202,185,255,250,152,219,185,107,
  95,110,164,196,43,17,93,36,141,85,227,36,
  182,102,85,42,217,2,177,199,104,211,70,36,
  152,90,79,163,207,14,152,54,72,41,237,158,
  223,158,110,203,227,219,174,153,193,200,171,247,
  82,192,104,76,82,248,6,109,22,32,16,242,
  22,92,249,180,146,178,168,16,117,216,50,94,
  64,215,26,238,36,158,217,201,208,140,7,174,
  181,212,8,26,28,90,238,21,196,184,62,213,
  238,31,173,60,63,9,181,163,222,234,29,235,
  161,45,152,224,192,206,210,62,73,253,6,97,
  41,12,206,48,228,64,81,83,217,25,53,19,
  191,192,196,217,162,62,228,29,209,22,73,219,
  69,26,143,196,5,95,94,252,70,190,201,111,
  3,146,85,104,5,110,216,215,235,204,58,81,
  16,85,98,206,209,184,221,160,6,52,190,3,
  88,194,244,233,213,212,94,249,156,245,190,174,
  15,9,235,96,19,86,155,0,101,114,49,22,
  98,35,17,211,164,10,198,91,40,105,214,168,
  156,5,109,213,78,163,51,208,40,193,59,216,
  194,146,40,183,183,31,245,246,186,72,227,204,
  94,58,59,102,239,244,100,186,162,74,163,3,
  217,191,234,140,193,203,36,8,105,63,223,6,
  43,75,9,106,156,89,32,243,32,78,25,191,
  105,79,208,16,238,203,180,64,245,219,9,179,
  32,191,236,68,51,230,216,231,68,77,77,59,
  203,16,89,151,0,216,232,178,180,100,116,35,
  69,242,86,244,221,169,26,26,220,201,15,220,
  60,184,245,69,93,44,170,182,95,31,248,254,
  20,175,224,162,247,174,83,36,101,100,73,160,
  73,73,35,22,28,203,166,151,62,215,209,68,
  247,62,248,201,16,175,74,168,164,87,223,31,
  205,199,189,38,180,174,249,58,200,221,39,34,
  196,143,225,10,121,249,54,228,65,8,58,3,
  57,57,225,55,79,232,215,20,149,4,93,39,
  241,232,143,101,39,222,167,164,20,215,18,236,
  72,253,133,251,214,186,38,34,235,82,208,43,
  43,237,76,66,230,196,245,6,45,153,2,79,
  180,228,203,196,117,13,210,231,202,89,252,196,
  46,17,66,82,65,253,153,171,178,172,79,77,
  194,192,42,11,8,197,223,98,84,11,82,25,
  91,243,28,50,12,2,97,78,178,11,165,161,
  96,48,84,19,9,8,214,229,124,58,200,155,
  23,8,246,189,121,173,215,54,113,179,193,233,
  7,29,211,203,18,1,34,180,33,38,98,68,
  146,79,240,243,222,243,226,233,252,185,118,208,
  10,230,15,160,158,0,98,100,173,112,246,250,
  175,221,232,124,100,206,34,158,64,236,164,61,
  174,12,78,176,159,166,149,14,64,13,8,250,
  193,155,107,21,227,150,71,196,212,14,50,36,
  36,70,31,180,67,38,247,77,92,108,83,198,
  68,113,68,189,109,46,248,61,21,18,226,252,
  228,48,69,190,27,88,79,227,235,67,170,88,
  173,254,209,69,239,75,52,113,43,255,233,82,
  162,7,255,200,201,141,254,245,167,109,54,166,
  82,189,225,45,196,172,136,67,58,201,212,217,
  14,193,65,46,60,87,159,36,37,20,168,214,
  198,199,0,61,107,162,174,14,207,87,202,166,
  71,204,215,54,237,3,196,29,97,180,212,222,
  18,194,68,208,179,200,70,56,245,49,32,31,
  180,59,81,180,64,202,190,237,97,78,243,178,
  44,194,4,9,209,158,79,189,213,35,68,239,
  228,11,157,235,27,38,168,250,83,250,178,251,
  209,163,44,210,47,139,18,247,30,22,92,177,
  183,201,12,213,0,156,85,148,81,185,18,148,
  57,59,238,253,76,33,139,140,224,177,9,219,
  138,216,34,185,239,14,22,101,3,28,97,209,
  39,57,29,78,248,137,74,183,164,159,68,2,
  163,200,215,4,215,195,99,232,238,72,212,91,
  172,77,174,24,1,250,192,78,198,1,102,202,
  249,4,220,161,57,190,214,220,40,227,246,234,
  201,61,202,199,87,84,1,9,97,232,190,149,
  34,198,164,80,252,175,42,150,78,252,45,219,
  77,150,34,245,38,198,219,3,193,230,242,81,
  50,15,161,188,30,218,239,8,161,172,215,133,
  38,80,68,2,44,27,170,165,245,207,187,22,
  57,57,213,97,239,181,36,5,43,199,29,11,
  236,12,238,53,12,232,73,75,27,187,255,118,
  34,196,235,248,192,2,96,220,16,69,64,91,
  3,210,84,53,94,51,232,81,142,47,64,175,
  202,110,190,91,156,241,101,225,136,151,38,60,
  186,171,52,237,248,67,203,68,188,30,196,221,
  4,55,64,58,8,191,162,64,70,84,192,160,
  92,177,20,75,187,7,204,204,216,24,182,91,
  210,63,193,47,146,171,42,219,118,229,198,206,
  181,38,252,214,186,17,163,221,90,185,26,244,
  15,236,95,54,74,29,24,190,183,180,87,63,
  233,95,199,171,92,213,252,196,108,3,2,27,
  71,32,29,72,84,61,192,209,94,89,140,175,
  92,221,206,72,61,169,236,54,44,19,95,55,
  47,250,90,24,51,73,80,201,18,226,224,86,
  74,84,215,69,20,230,95,71,9,41,206,235,
  210,40,155,92,33,58,176,58,194,46,86,71,
  182,72,14,58,41,33,111,174,22,228,239,70,
  176,182,20,144,238,62,221,184,176,35,55,68,
  98,158,250,63,5,214,161,187,200,214,217,163,
  18,64,85,82,86,164,116,157,254,34,248,100,
  200,51,6,95,88,241,169,230,241,143,187,172,
  172,203,238,200,58,193,215,245,106,4,195,20,
  246,157,9,17,209,75,199,14,107,192,91,221,
  209,72,213,161,194,171,7,211,177,244,33,214,
  191,164,6,192,43,31,253,18,187,72,204,199,
  231,207,247,221,224,223,233,153,225,194,240,55,
  195,184,244,52,178,73,206,250,77,224,67,223,
  176,222,4,76,238,31,199,34,104,196,73,225,
  23,110,6,168,150,164,54,14,177,209,87,108,
  252,74,154,8,164,240,28,2,96,25,14,186,
  31,150,191,41,217,114,99,5,100,51,79,44,
  85,1,37,234,77,32,252,91,138,16,70,239,
  201,184,79,251,170,239,46,119,91,80,148,181,
  188,167,185,87,201,29,202,51,41,37,182,81,
  246,160,202,80,162,74,114,73,46,37,43,20,
  174,68,47,29,11,191,12,120,201,210,242,12,
  114,55,80,240,244,63,8,53,184,221,35,54,
  173,14,3,246,207,24,161,205,113,60,95,116,
  108,194,57,195,192,234,207,47,186,81,175,204,
  213,88,39,10,53,189,184,59,158,226,4,4,
  7,82,175,22,52,250,162,43,198,67,85,173,
  14,51,249,194,138,55,58,54,172,6,4,11,
  42,244,210,217,69,36,187,89,15,211,161,100,
  25,166,171,162,24,75,8,43,153,237,62,112,
  91,5,189,68,148,183,99,182,63,253,5,217,
  3,254,192,108,45,190,83,202,65,197,134,71,
  105,62,211,224,160,229,90,207,202,64,198,50,
  250,78,178,18,53,190,83,151,23,172,79,38,
  244,19,54,154,89,221,33,56,186,205,58,52,
  106,206,50,147,219,34,56,208,108,204,56,106,
  217,50,5,175,17,253,107,20,40,83,232,197,
  30,160,164,9,195,245,76,46,181,255,154,163,
  148,183,190,179,52,167,242,31,73,75,155,94,
  179,165,97,162,66,37,113,146,211,215,199,190,
  92,38,224,6,162,1,250,11,28,30,84,14,
  211,80,21,198,77,37,42,52,246,156,207,167,
  80,186,73,47,22,64,96,217,208,50,183,12,
  190,16,134,163,161,158,45,15,190,184,191,253,
  150,52,219,47,79,207,158,28,12,225,164,205,
  32,68,200,234,2,192,159,228,14,161,240,197,
  192,216,192,148,78,45,32,200,219,213,169,206,
  251,38,229,204,213,20,189,38,230,95,56,245,
  150,194,59,174,240,12,207,90,71,164,52,73,
  239,41,38,220,232,21,33,119,67,186,93,216,
  33,243,6,41,12,113,5,163,206,242,26,63,
  6,55,78,121,2,46,243,202,224,165,195,192,
  10,252,168,37,175,210,69,214,32,244,92,30,
  80,12,71,183,18,166,171,174,153,81,60,254,
  106,202,71,89,196,84,200,87,136,44,208,206,
  232,162,79,234,77,33,5,142,190,175,29,153,
  246,150,65,216,164,88,164,234,143,91,30,250,
  211,248,192,64,4,18,25,146,202,144,214,223,
  187,52,75,149,18,179,104,63,195,155,101,74,
  39,80,222,86,168,236,187,246,61,230,32,162,
  250,212,37,191,206,254,187,148,250,22,159,219,
  200,222,168,2,22,228,102,219,148,154,222,1,
  43,88,60,222,222,28,36,42,37,224,22,92,
  233,42,98,186,83,25,10,17,38,100,19,220,
  183,175,243,45,78,215,243,74,11,194,170,158,
  82,92,80,38,156,234,160,173,192,76,17,236,
  250,113,4,170,72,1,168,163,52,60,183,42,
  57,91,19,59,108,12,15,177,33,221,164,169,
  40,246,39,188,38,143,22,85,167,204,191,93,
  210,212,30,194,172,95,148,91,182,208,60,198,
  205,70,69,197,78,253,231,228,202,84,3,38,
  203,67,55,252,225,241,3,193,195,175,198,67,
  81,186,200,227,35,21,28,18,66,178,88,180,
  237,60,37,252,17,22,89,171,54,240,235,194,
  176,196,6,54,178,191,251,45,75,22,34,149,
  108,33,4,46,69,83,73,48,51,250,252,172,
  215,202,97,62,152,181,204,222,43,88,228,61,
  211,151,60,19,197,243,101,42,10,9,47,63,
  19,28,248,39,162,152,13,223,78,251,174,193,
  55,237,4,236,17,56,157,181,220,236,47,21,
  2,13,38,236,10,230,197,155,162,246,250,186,
  242,183,198,226,255,20,176,9,45,3,152,157,
  184,231,250,171,26,155,154,237,40,181,14,137,
  29,69,167,125,59,215,202,227,155,191,169,72,
  10,105,46,181,18,255,255,255,4,0,0,0,
  128,0,0,0,255,255,255,255,2,0,0,0,
  254,255,255,255,3,0,0,0,253,255,255,255,
  255,255,255,255,2,0,0,0,255,255,255,255,
  1,0,0,0,253,255,255,255,254,255,255,255,
  254,255,255,255,3,0,0,0,254,255,255,255,
  255,255,255,255,254,255,255,255,253,255,255,255,
  3,0,0,0,253,255,255,255,3,0,0,0,
  3,0,0,0,2,0,0,0,2,0,0,0,
  253,255,255,255,2,0,0,0,0,0,0,0,
  2,0,0,0,255,255,255,255,0,0,0,0,
  3,0,0,0,253,255,255,255,0,0,0,0,
  158,255,255,255,4,0,0,0,64,0,0,0,
  166,206,93,80,61,78,71,154,231,105,88,251,
  19,98,64,171,116,5,109,105,142,176,246,89,
  184,44,163,211,117,159,110,50,116,13,42,127,
  239,39,116,115,153,151,137,185,75,73,135,148,
  120,87,224,205,46,105,19,222,248,48,204,147,
  51,37,17,115,234,255,255,255,4,0,0,0,
  8,0,0,0,254,255,255,255,2,0,0,0,
  0,0,6,0,8,0,4,0,6,0,0,0,
  4,0,0,0,8,0,0,0,255,255,255,255,
  88,2,0,0,84,251,255,255,88,251,255,255,
  15,0,0,0,77,76,73,82,32,67,111,110,
  118,101,114,116,101,100,46,0,1,0,0,0,
  20,0,0,0,0,0,14,0,24,0,20,0,
  16,0,12,0,8,0,4,0,14,0,0,0,
  20,0,0,0,28,0,0,0,216,0,0,0,
  220,0,0,0,224,0,0,0,4,0,0,0,
  109,97,105,110,0,0,0,0,3,0,0,0,
  156,0,0,0,76,0,0,0,4,0,0,0,
  202,255,255,255,20,0,0,0,0,0,0,8,
  16,0,0,0,20,0,0,0,1,0,0,0,
  212,251,255,255,1,0,0,0,8,0,0,0,
  3,0,0,0,7,0,0,0,3,0,0,0,
  2,0,0,0,0,0,14,0,26,0,20,0,
  16,0,12,0,11,0,4,0,14,0,0,0,
  28,0,0,0,0,0,0,8,28,0,0,0,
  32,0,0,0,1,0,0,0,0,0,6,0,
  8,0,7,0,6,0,0,0,0,0,0,1,
  1,0,0,0,7,0,0,0,3,0,0,0,
  6,0,0,0,5,0,0,0,4,0,0,0,
  0,0,10,0,12,0,0,0,8,0,4,0,
  10,0,0,0,8,0,0,0,12,0,0,0,
  1,0,0,0,6,0,0,0,2,0,0,0,
  0,0,0,0,1,0,0,0,1,0,0,0,
  8,0,0,0,1,0,0,0,0,0,0,0,
  9,0,0,0,188,3,0,0,96,3,0,0,
  228,2,0,0,128,2,0,0,28,2,0,0,
  184,1,0,0,52,1,0,0,128,0,0,0,
  4,0,0,0,126,252,255,255,0,0,0,1,
  24,0,0,0,32,0,0,0,60,0,0,0,
  9,0,0,0,0,0,0,9,80,0,0,0,
  2,0,0,0,255,255,255,255,2,0,0,0,
  100,252,255,255,8,0,0,0,16,0,0,0,
  1,0,0,0,194,255,255,255,255,255,255,255,
  1,0,0,0,124,28,216,63,27,0,0,0,
  83,116,97,116,101,102,117,108,80,97,114,116,
  105,116,105,111,110,101,100,67,97,108,108,95,
  49,58,48,0,2,0,0,0,1,0,0,0,
  2,0,0,0,246,252,255,255,0,0,0,1,
  24,0,0,0,32,0,0,0,60,0,0,0,
  8,0,0,0,0,0,0,9,136,0,0,0,
  2,0,0,0,255,255,255,255,32,0,0,0,
  220,252,255,255,8,0,0,0,16,0,0,0,
  1,0,0,0,128,255,255,255,255,255,255,255,
  1,0,0,0,34,222,178,63,82,0,0,0,
  102,117,110,99,116,105,111,110,97,108,95,49,
  47,100,101,110,115,101,95,49,47,77,97,116,
  77,117,108,59,102,117,110,99,116,105,111,110,
  97,108,95,49,47,100,101,110,115,101,95,49,
  47,82,101,108,117,59,102,117,110,99,116,105,
  111,110,97,108,95,49,47,100,101,110,115,101,
  95,49,47,66,105,97,115,65,100,100,0,0,
  2,0,0,0,1,0,0,0,32,0,0,0,
  166,253,255,255,0,0,0,1,24,0,0,0,
  32,0,0,0,64,0,0,0,7,0,0,0,
  0,0,0,9,88,0,0,0,2,0,0,0,
  255,255,255,255,88,2,0,0,140,253,255,255,
  8,0,0,0,20,0,0,0,1,0,0,0,
  0,0,0,0,0,0,0,0,0,0,0,0,
  1,0,0,0,152,151,137,64,30,0,0,0,
  102,117,110,99,116,105,111,110,97,108,95,49,
  47,114,101,115,104,97,112,101,95,49,47,82,
  101,115,104,97,112,101,0,0,2,0,0,0,
  1,0,0,0,88,2,0,0,126,254,255,255,
  0,0,0,1,20,0,0,0,48,0,0,0,
  6,0,0,0,0,0,0,9,60,0,0,0,
  252,253,255,255,8,0,0,0,16,0,0,0,
  1,0,0,0,0,0,0,0,0,0,0,0,
  1,0,0,0,114,4,104,58,18,0,0,0,
  116,102,108,46,112,115,101,117,100,111,95,113,
  99,111,110,115,116,51,0,0,2,0,0,0,
  32,0,0,0,88,2,0,0,222,254,255,255,
  0,0,0,1,20,0,0,0,52,0,0,0,
  5,0,0,0,0,0,0,2,64,0,0,0,
  92,254,255,255,8,0,0,0,20,0,0,0,
  1,0,0,0,0,0,0,0,0,0,0,0,
  0,0,0,0,1,0,0,0,139,103,121,59,
  18,0,0,0,116,102,108,46,112,115,101,117,
  100,111,95,113,99,111,110,115,116,50,0,0,
  1,0,0,0,32,0,0,0,62,255,255,255,
  0,0,0,1,20,0,0,0,48,0,0,0,
  4,0,0,0,0,0,0,9,60,0,0,0,
  188,254,255,255,8,0,0,0,16,0,0,0,
  1,0,0,0,0,0,0,0,0,0,0,0,
  1,0,0,0,178,41,87,59,18,0,0,0,
  116,102,108,46,112,115,101,117,100,111,95,113,
  99,111,110,115,116,49,0,0,2,0,0,0,
  2,0,0,0,32,0,0,0,158,255,255,255,
  0,0,0,1,20,0,0,0,52,0,0,0,
  3,0,0,0,0,0,0,2,64,0,0,0,
  28,255,255,255,8,0,0,0,20,0,0,0,
  1,0,0,0,0,0,0,0,0,0,0,0,
  0,0,0,0,1,0,0,0,176,85,150,59,
  17,0,0,0,116,102,108,46,112,115,101,117,
  100,111,95,113,99,111,110,115,116,0,0,0,
  1,0,0,0,2,0,0,0,0,0,22,0,
  28,0,24,0,23,0,16,0,12,0,8,0,
  0,0,0,0,0,0,7,0,22,0,0,0,
  0,0,0,1,24,0,0,0,24,0,0,0,
  2,0,0,0,0,0,0,2,32,0,0,0,
  4,0,4,0,4,0,0,0,14,0,0,0,
  97,114,105,116,104,46,99,111,110,115,116,97,
  110,116,0,0,1,0,0,0,2,0,0,0,
  0,0,22,0,32,0,28,0,27,0,20,0,
  16,0,12,0,0,0,0,0,8,0,7,0,
  22,0,0,0,0,0,0,1,24,0,0,0,
  48,0,0,0,76,0,0,0,1,0,0,0,
  0,0,0,9,96,0,0,0,3,0,0,0,
  255,255,255,255,100,0,0,0,6,0,0,0,
  12,0,12,0,0,0,0,0,8,0,4,0,
  12,0,0,0,8,0,0,0,16,0,0,0,
  1,0,0,0,0,0,0,0,0,0,0,0,
  1,0,0,0,152,151,137,64,24,0,0,0,
  115,101,114,118,105,110,103,95,100,101,102,97,
  117,108,116,95,119,105,110,100,111,119,58,48,
  0,0,0,0,3,0,0,0,1,0,0,0,
  100,0,0,0,6,0,0,0,2,0,0,0,
  48,0,0,0,16,0,0,0,12,0,16,0,
  15,0,0,0,8,0,4,0,12,0,0,0,
  9,0,0,0,4,0,0,0,0,0,0,9,
  12,0,12,0,11,0,0,0,0,0,4,0,
  12,0,0,0,22,0,0,0,0,0,0,22
  
};
const unsigned int g_gesture_model_data_len = 21408;
